#include "WT_Trumpet_samples.h"

PROGMEM
static const uint32_t sample_0_WT_Trumpet_trum04[10112] = {
0xff9cff8f,0xffceffa9,0xfff90000,0xffd7ffe9,0xffbcffb2,0xff72ffa4,0xffc4ff9e,0xffbcffb2,
0xffdcffca,0x006a001e,0x012600c2,0x01620159,0x01430152,0x014e014d,0x0118013c,0x00b100e5,
0x00440072,0x00400039,0x00870071,0xffa30022,0xff62ff70,0xff32ff48,0xff6cff58,0xff1eff2c,
0xffa6ff5e,0xffd6ffeb,0xff8bff7a,0xffbeffe8,0xfe7efefe,0xfed8fe9e,0xff30ff11,0xff00ff03,
0xff1eff3b,0xfe75fe9d,0xff08fecb,0xffbeff59,0xffc1ffc8,0xffd9ffc6,0x00570020,0x00180046,
0x00c80028,0x023b01b7,0x02520248,0x01f70245,0x019201b0,0x0126016a,0x00ad00e0,0x009b0099,
0x009a00af,0x006d0062,0x0069008a,0xffd40025,0xff51ff8b,0xff74ff3b,0xff90ffac,0xff8fff67,
0xff51ffb0,0xfe95fec4,0xfeacfea1,0xfecefed5,0xfea9fe98,0xff2cfec1,0xff9fffcd,0xfeb9ff20,
0xff06fe6c,0xff9fffcb,0xfedaff16,0xff6dff07,0xffcdffcc,0xff73ff59,0x0020001a,0x00ab0024,
0x015c00ed,0x01f401e9,0x0288022a,0x02430291,0x018401b4,0x019d01a9,0x0185017e,0x025a01fb,
0x008601a5,0x0071003d,0xffa60021,0x0036ffbf,0xff710039,0xfefefed3,0xff7bff79,0xfe80feac,
0x001fffbf,0xfdadfeaa,0xfe99fe39,0xfdb4fdf9,0xfe63fe0a,0xfddffe98,0xfec9fdaa,0xfe63fee9,
0xfe7afe51,0xfeaffed8,0xfe33fe4d,0xff5cfe67,0xff14ffca,0xff46fed5,0x00f2ffe6,0x00ee0183,
0x00fe00a3,0x02ab0183,0x05450425,0x05f505ec,0x0515058d,0x03260462,0x016501fa,0x00d00103,
0x00ac00e7,0x001a004d,0xfeafff53,0xfff3ff34,0x002d002b,0x0027006c,0xfdf5fedf,0xfe4cfe06,
0xfd8cfe27,0xfd12fcf9,0xfe44fdd3,0xfca9fd70,0xfe9cfdb3,0xfd7bfdde,0xff12fe48,0xfe46ff0c,
0xfcb0fd4c,0xfc60fc8a,0xfb38fc05,0xfbacfad3,0xfc2afc26,0xfccafc85,0xff03fdaf,0x01ec002a,
0x07bf0430,0x122b0d5e,0x15ac14ec,0x0c441274,0x00060591,0xfc73fd2c,0xfdccfcf6,0xfef9fe3f,
0xffb5ffa3,0xffe6ffca,0xff33ffb5,0xfddafe75,0xfd90fd8f,0xfdf7fdd5,0xfcc1fd7b,0xfc65fc6a,
0xfca0fc82,0xfddefd1a,0xfdeffdf7,0xfd7efe0d,0xfd14fd23,0xfc73fc88,0xfb82fca6,0xfa7dfa44,
0xf96efa63,0xf759f867,0xf850f782,0xf8aaf837,0xfb4bf9e9,0x02e6fe60,0x108d0883,0x233319ea,
0x257a2929,0x085a1846,0xf47bfb63,0xf713f3e7,0xfdcffaca,0x020e003e,0x02f90333,0x0043017e,
0xff0bff8e,0xfe30feb7,0xfddefde0,0xfcb3fd2f,0xfc33fcc7,0xfa6efb5e,0xfa9df9da,0xfd79fbfd,
0xfd6ffe28,0xfd1efcfb,0xfcb1fcf7,0xfb59fc1e,0xfa86faf2,0xf9e1fa1d,0xf969f980,0xf736f8c9,
0xf716f6b3,0xf811f74b,0xf9c3f8dc,0x0088fc69,0x0ec70659,0x220d18bb,0x243026e6,0x0e2b1b02,
0xfa8f01ef,0xfa15f873,0x00adfda3,0x02650204,0x059e036b,0x036e066c,0xfc56ff02,0xfc0afb73,
0xfe9efda0,0xfbd9fdb5,0xfad8fb1a,0xf951f9fb,0xfafbf9e7,0xfbdffb25,0xfe69fdb8,0xfc15fd41,
0xfb8bfbf5,0xfc1afb78,0xfab2fb85,0xfa65fa7b,0xf974fa57,0xf7e8f85f,0xf754f780,0xf768f770,
0xf937f7be,0xfbb7faea,0xffc3fcf1,0x08780382,0x16dc0f3e,0x24681eb6,0x1e2423cf,0x0c991628,
0xfe8203f8,0xfd90fc9f,0x0163fff8,0xff4c0047,0xff56ffe8,0xfaeefcc5,0xfc50fb02,0xfe14fded,
0xfa05fc47,0xf893f898,0xf9e5f962,0xfb56fa8a,0xfc41fb8a,0xfcf6fd50,0xfd6cfc8c,0xfbfbfd38,
0xfbd5fc1f,0xf9a1fa5d,0xf8ebf930,0xf8c4f8dd,0xf9e9f95c,0xfaacfa2c,0xfb07fae0,0xfa36fb1f,
0xf7a2f8b3,0xf701f72c,0xfa71f770,0x0673002a,0x1c5e0f82,0x377c2a47,0x34553cbd,0x0cda2256,
0xeeb0f9df,0xf11aecc6,0xfe35f7e2,0x001500bd,0xfd57fece,0xfcb6fc95,0xfbccfc9b,0xfabffafb,
0xfaebfad0,0xfa10facc,0xf738f85d,0xf979f835,0xfa2bf9aa,0xfc6cfb51,0xfd07fd38,0xfb96fc1e,
0xfa3cfb24,0xf957f96c,0xfa74f9c3,0xfca0fb7b,0xfde9fd8c,0xfcf8fe04,0xf8e0fa85,0xf498f733,
0xf16bf2d5,0xf28ef0e4,0xfb9af5c8,0x13a8056b,0x361724e5,0x4fe04626,0x221944c0,0xea31fe26,
0xe6a7e3e9,0xf82aef02,0x02d9feb3,0x045c0595,0xfcef0001,0xfcb5fbe0,0xfccefdcc,0xfa6afb58,
0xf876f960,0xf62df780,0xf591f547,0xf89af6d9,0xfaeefa08,0xfb52fb7f,0xfad5facc,0xfb7cfb55,
0xfab7fafa,0xfbe2fb2e,0xfd54fcb1,0xfd1bfd46,0xfd34fd5a,0xfbc3fcb6,0xf725f9af,0xf165f421,
0xeef4efec,0xf337efa3,0x036df9a6,0x23091131,0x4b5136ed,0x4d81584a,0x04fe2ad0,0xe2ecec88,
0xeb72e395,0xfcdcf5f2,0x0088ff89,0xfffc008a,0xfc7cfe8b,0xfbc2fb87,0xfcc1fc89,0xf995fb5a,
0xf674f822,0xf4c4f509,0xf670f59c,0xf9c5f79e,0xfbcdfb46,0xfaf8fbbf,0xfb9efad2,0xfb34fbd9,
0xfb56fae0,0xfb16fb82,0xfc1cfb23,0xfdd1fd5c,0xfd09fd64,0xfcccfd19,0xf7d7faf3,0xf215f49f,
0xefe6f0b3,0xf3b3f015,0x080ffc00,0x28db1729,0x4d363ba1,0x492c5584,0x04372912,0xdff0ea1a,
0xeb72e233,0xfc30f599,0xff2cfef2,0xfc41fdb0,0xfdbdfc9a,0xfc78fdcd,0xf951faad,0xf74cf835,
0xf664f6e3,0xf51ef584,0xf76bf5da,0xfab9f93f,0xfba4fb65,0xfc4afc00,0xfc11fc34,0xfb4dfbf6,
0xf9b0fa3d,0xfb16f9fd,0xfddffca2,0xff62feb0,0xfedeff88,0xfa2cfd21,0xf46ef762,0xedc1f064,
0xedf7ed54,0xf9a2f165,0x150705f4,0x3acb26aa,0x5a724ec7,0x3028515a,0xe9eb0756,0xde35dd35,
0xf67fe838,0x00b20067,0xfde3fe22,0xfeebfed2,0xf8befc33,0xf785f72e,0xf9cdf90c,0xf7ddf918,
0xf52af63f,0xf6edf5c8,0xf8ccf7ce,0xfb71f9e0,0xfc27fc80,0xfb61fb93,0xfa4bfafc,0xfab8fa4d,
0xfb49fac2,0xfc6afbfd,0xfe28fd32,0xff5eff14,0xfd27fe92,0xf90dfb48,0xf187f5d0,0xece5ee39,
0xf0c2ed66,0x054df8ab,0x273d1511,0x50023bcf,0x50675af5,0x075b2efc,0xdccaea72,0xe4d7dc51,
0x0352f3b5,0x04000905,0xf8f9fce6,0xfb4cf95a,0xfa98fb69,0xf8a4f9be,0xf71cf7d9,0xf5aff647,
0xf503f53c,0xf7aaf5bf,0xfc3bfa07,0xfcc5fd50,0xfadffb97,0xfbb8fb23,0xfb4bfbaf,0xfa71facc,
0xfb30faa3,0xfc82fbdd,0xfdaafd0b,0xfdd4fe18,0xfba3fd08,0xf64bf941,0xefe9f2fd,0xee4cee67,
0xf8b8f0ac,0x14e305c2,0x382f25ab,0x545f4a13,0x35194e4d,0xf1fb1130,0xdcdee0b4,0xf04ce32e,
0x05e3fea5,0xfd650364,0xfa27fa07,0xfae7fb05,0xf9f5fa69,0xf8daf97c,0xf653f7c0,0xf507f54c,
0xf62df558,0xf94cf788,0xfc75fb29,0xfc6ffcc6,0xfc42fc30,0xfb7ffc29,0xfaa0fad1,0xfa22fa6e,
0xfa73fa19,0xfc72fb54,0xfe67fd85,0xfe03fea6,0xf93dfc13,0xf2fdf64a,0xee70f019,0xf0d3edf0,
0x05b8f920,0x252d14c7,0x47fc36b7,0x510353e3,0x13a538c1,0xdf2af28d,0xe1badac5,0xfb5bee96,
0x04a602fd,0xfd5b01c8,0xfaabfaf5,0xfa9afabd,0xf96efa26,0xf71ff869,0xf5a2f622,0xf5adf580,
0xf726f61c,0xfafbf8dc,0xfd7dfcdc,0xfc86fd1a,0xfb9bfbf5,0xfb22fb74,0xfa45fa9c,0xfa9dfa53,
0xfbe3fb14,0xfdaffcef,0xfddafdf1,0xfb78fd27,0xf5b4f8e9,0xef35f22e,0xee1fedbd,0xf988f155,
0x169206d6,0x382a26e4,0x522848a6,0x36584d7c,0xf3ab1358,0xdb1ee073,0xec43e0b0,0x05e0fabd,
0x011906f0,0xfaebfc3b,0xfb0dfb39,0xfa2cfa69,0xf938f9ef,0xf6e3f822,0xf540f5ed,0xf522f4cb,
0xf8f9f6a8,0xfc9efb32,0xfc42fcdf,0xfbbdfbc6,0xfba7fbbf,0xfb00fb67,0xfa8efaa0,0xfbb0fb11,
0xfcd2fc1a,0xfd8bfd8b,0xfca2fd32,0xf867faff,0xf151f535,0xed4fee53,0xf28bee0f,0x0a64fc74,
0x2a8d1a41,0x49b83ae3,0x462d4f64,0x10d3303b,0xe171f286,0xe2a9dd7a,0xfb39edd6,0x050404c9,
0xfe12006e,0xfd3dfdbd,0xf933fb5e,0xf916f8c5,0xf825f8e7,0xf583f6d1,0xf4faf4d3,0xf826f63b,
0xfaaef9a6,0xfbe4fb8b,0xfbf2fbee,0xfb4ffbb5,0xfb31fb24,0xfaf3fb0f,0xfb16fb01,0xfbbbfb7a,
0xfd19fc1c,0xfd5dfd9a,0xfaedfc8d,0xf4f4f872,0xeebef14e,0xee1fed75,0xfdd8f319,0x1cc40cbf,
0x3c602c97,0x4c5c490f,0x295e414c,0xf51a0d66,0xdf3ce48c,0xef88e4aa,0x019dfa2a,0x01fc0444,
0xfdedfec4,0xfd0dfe02,0xf8fdfafc,0xf7d4f822,0xf6a3f760,0xf4e9f58e,0xf5f6f526,0xf9c8f79d,
0xfbf6fb4f,0xfb91fbf4,0xfbdefb90,0xfb94fbd2,0xfad7fb4f,0xfa69fa78,0xfb0efa94,0xfcadfbdd,
0xfce1fd0d,0xfbf5fc7c,0xf80afaa4,0xf1a2f4bc,0xeda6ef4b,0xf42bee38,0x0f5d0013,0x2f281f49,
0x490f3e2a,0x3d9f4a66,0x08a624b2,0xe583f2b8,0xe58de112,0xfb8cef7a,0x06fc05a8,0xfc9f0126,
0xfc81fbb4,0xfcdafd8f,0xf79efa4d,0xf51df5c8,0xf5cff53c,0xf6a5f693,0xf776f678,0xfbb1f99a,
0xfbfdfc7d,0xfb75fb7c,0xfbe5fba8,0xfb26fbbc,0xfa41fa96,0xfb18fa67,0xfc74fbe9,0xfd4efcda,
0xfcdffd64,0xfa2efc01,0xf370f6f2,0xee32f08a,0xee90ecda,0x01f4f5a7,0x20f5110d,0x3f1130af,
0x4952492f,0x22cf3bdd,0xef24053c,0xe4a6e5cd,0xf2fae98c,0x00c1fbf9,0x01450188,0xfee400b2,
0xfaf5fc8d,0xf9e5fa79,0xf68ff858,0xf59df598,0xf583f5b6,0xf6f2f5d5,0xfa08f86a,0xfc1cfb78,
0xfbf8fc01,0xfbd7fc1f,0xfae0fb40,0xfa6bfab4,0xfb0ffa62,0xfbd8fbbc,0xfc7bfbee,0xfd4efd34,
0xfaaafc70,0xf637f857,0xf07ef3c6,0xedbfee0f,0xf8c7f090,0x15c2064d,0x343b24e7,0x480541e8,
0x33cb4351,0x00381a87,0xe671ef05,0xe9b0e42d,0x00eff559,0x02be0572,0xfe36ff27,0xfe16fe8a,
0xfa33fc83,0xf653f7d3,0xf663f5eb,0xf66df6e5,0xf5b5f5a6,0xf85df6a1,0xfb9cfa52,0xfb61fbe8,
0xfb08faf0,0xfbd9fb64,0xfab3fbb9,0xfa19f9cb,0xfc27fb44,0xfc83fc74,0xfd3bfcdc,0xfc19fcf6,
0xf7e4fa5a,0xf311f585,0xee4cf08a,0xf173ed90,0x098afb68,0x278e18c7,0x420935f8,0x3fbb46aa,
0x16ce2e4f,0xed74fe80,0xe747e72b,0xf43ceb86,0x05c8ff21,0x016104b9,0xfd83ff48,0xfb95fc66,
0xf92afa8c,0xf5c2f743,0xf551f54c,0xf5b2f584,0xf6f1f5d8,0xfabcf8fc,0xfbc9fba8,0xfbf0fbb5,
0xfbecfc1b,0xfaaafb6b,0xfa28fa2b,0xfb2bfa85,0xfc1ffbc1,0xfc88fc61,0xfcc9fcce,0xf9edfbaa,
0xf4e0f7c8,0xef50f1e0,0xee0bed7e,0xff32f3b9,0x1ce20ddf,0x38592b22,0x44664237,0x2bcd3cdd,
0xfaff1358,0xe3d3ea77,0xedbfe5ce,0x0385f914,0x039006cd,0xfe270011,0xfbb3fce4,0xf97ffa51,
0xf759f8cf,0xf552f5f8,0xf57bf538,0xf6def5fd,0xf96bf802,0xfb5efaea,0xfafafaf7,0xfbb5fb65,
0xfb78fbc8,0xfa26facc,0xfa88f9f0,0xfc4bfbb4,0xfc81fc34,0xfd30fd0d,0xfb2ffca9,0xf697f8fe,
0xf168f40d,0xeda6ef01,0xf6cfef84,0x11f30335,0x2d6e202a,0x41d6399c,0x38c1428f,0x0bc32450,
0xe9a2f6fe,0xe8d5e536,0xfb4af158,0x047a0267,0x031a03d4,0xfdc5014c,0xf971facb,0xf882f909,
0xf584f71f,0xf4a6f496,0xf634f56a,0xf81bf6fa,0xfad3f98a,0xfb6cfb66,0xfbf9fbaf,0xfb1dfbbd,
0xf9d3fa5b,0xfa3bf9c9,0xfbfdfb1b,0xfcb9fc7a,0xfd15fcfd,0xfc8cfce4,0xf8dcfb53,0xf301f5fe,
0xeea6f07c,0xefd2ed70,0x058df854,0x22d81484,0x3b933026,0x40d64229,0x207b3537,0xf3ab0821,
0xe8d7e9be,0xf12ceb2e,0x0508fbc5,0x03c5071a,0xfcaaffb2,0xfa88faf3,0xf9c5fa7e,0xf6caf85d,
0xf527f58d,0xf5fdf5a8,0xf617f5a5,0xf9b7f7d3,0xfb93fb1a,0xfb21fb4d,0xfb55fb4c,0xfb03fb27,
0xfa02faa1,0xfa9ef9e9,0xfd1dfbd8,0xfde7fdd1,0xfd1dfdad,0xfa75fc1c,0xf59bf82f,0xf06bf2e9,
0xed4aee40,0xfa9df0cd,0x174f0885,0x3273254a,0x409e3c92,0x33593e68,0x05c91e32,0xe708f1e3,
0xeaf4e58b,0xfdfaf4b4,0x03da0305,0x01ef02ab,0xfd02005e,0xf91cfa48,0xf81ef8ba,0xf5a6f6d0,
0xf545f538,0xf606f58e,0xf85cf6cf,0xfb3efa48,0xfaf4fb19,0xfb74fb4c,0xfaa0fb12,0xf9b8fa35,
0xfaeaf9d5,0xfcb2fc1d,0xfd4efce8,0xfe10fdeb,0xfc1efd68,0xf7aefa18,0xf1bdf4f5,0xed42ef0e,
0xf2feed69,0x0d08fe98,0x29541b83,0x3e0035d9,0x3ae23faf,0x16792cd6,0xeea8ffae,0xe6e6e678,
0xf56fec99,0x07530016,0x03ea06e1,0xfe98023a,0xf88bfa45,0xf927f8c9,0xf6edf870,0xf416f52c,
0xf5a9f490,0xf793f693,0xf9cdf8b5,0xfaccfa75,0xfc31fb95,0xfab3fba2,0xfa30fa3a,0xfa6efa4b,
0xfbc9fb02,0xfcecfc5c,0xfddbfd7a,0xfd04fdbb,0xf92cfb99,0xf448f68d,0xef69f1db,0xee92ed7d,
0x0247f5c8,0x1ea910b4,0x37482bbf,0x3df53de4,0x28563806,0xf9e20fe1,0xe9eaeda3,0xf10deb60,
0x00f7f9e0,0x02c70378,0xfe7000ac,0xfb4ffc8a,0xfa3bfad7,0xf76df908,0xf4fef5d3,0xf5c4f539,
0xf649f5f3,0xf937f77d,0xfb33fa9e,0xfbe9fb71,0xfbddfc39,0xfa37faf4,0xf99ff9f1,0xfabdf99f,
0xfd00fc3e,0xfd93fd43,0xfd5ffdbf,0xfa91fc32,0xf645f89a,0xf118f3c4,0xede4eec3,0xf92df0b5,
0x14c1064f,0x2ef8223f,0x3d983963,0x33873b8d,0x0b08223e,0xeaa4f6f3,0xe9dde6c1,0xfad7f121,
0x07b0044e,0x02ad04fc,0xfc9800de,0xf6e6f84d,0xf999f811,0xf7fff99b,0xf4c1f5ef,0xf491f47b,
0xf7c2f58e,0xfb29fa03,0xfba3fb64,0xfc3efc21,0xfb5dfbe3,0xf986fa96,0xf963f8d9,0xfc12fac6,
0xfd7afcf5,0xfdaefdbc,0xfc78fd3e,0xf822facc,0xf1e1f504,0xee27efa3,0xf1f8edcc,0x0ae4fca3,
0x257918d4,0x396b30c7,0x39e93cf3,0x1eaf3017,0xf560089e,0xe72ce9f5,0xf562ec00,0x0373fe35,
0x029204ca,0xfc8dff1a,0xfafffb4e,0xf972fa8e,0xf6d5f805,0xf566f5f4,0xf5c3f578,0xf703f618,
0xfa24f88b,0xfb1dfb15,0xfc07fb3c,0xfbdcfc74,0xf9bcfab3,0xf914f92b,0xfb77f9f0,0xfd89fcc8,
0xfe28fde0,0xfd4dfe27,0xfa19fbd6,0xf49ff7c9,0xef45f184,0xedc3ed71,0xfec6f372,0x1b990d39,
0x3313286c,0x3c503a28,0x2dae3873,0x03091a89,0xead3f208,0xebcce907,0xfd2ff328,0x0685053f,
0x00b403ad,0xfa3dfd37,0xf9a3f94f,0xf94ef9fa,0xf61ff7a4,0xf589f58d,0xf532f540,0xf816f638,
0xfb37fa06,0xfc8efbec,0xfbb5fc71,0xfa93fb1a,0xf944f9eb,0xfa03f92f,0xfccbfb5b,0xfe65fde3,
0xfdddfe5d,0xfbb1fd23,0xf697f94c,0xf05ff365,0xecf7ee60,0xf5c1ee60,0x115a028e,0x2b8f1f2b,
0x3b9b35b9,0x36643c11,0x146e28f0,0xeffaff7c,0xe823e7cd,0xf93cef92,0x02ff003b,0x015202b0,
0xfe8c0026,0xfa43fc43,0xf8e5f938,0xf720f869,0xf47ff57c,0xf536f479,0xf7b9f654,0xfb40f9a6,
0xfadafb4e,0xfc4ffb6c,0xfb96fc60,0xf94afa6a,0xf93ef8b2,0xfc3afaaf,0xfdbefd4e,0xfe5dfe0b,
0xfd1cfe20,0xf8d5fb51,0xf368f620,0xee9cf0e1,0xeea7ecdf,0x045bf6f4,0x20d7130b,0x36812d0f,
0x3bd93be1,0x2715355c,0xfd17121a,0xe69aede2,0xef83e7b4,0x012bf9f0,0x027f031e,0x00d40198,
0xfb73fedd,0xf894f8ee,0xf969f961,0xf5c9f7e3,0xf35cf41a,0xf604f3ff,0xfa71f88d,0xfb25fb46,
0xfbcdfafc,0xfcaafcb1,0xfa5cfbda,0xf891f8e2,0xfb1ef98f,0xfd3bfc83,0xfdf7fd7f,0xfe24fe64,
0xfadbfcf1,0xf544f83f,0xf02df26e,0xec8aeddb,0xf9c6efe2,0x16920805,0x2fb023c6,0x3cf238b5,
0x32f43b66,0x0c472227,0xebdef915,0xe943e61f,0xfcb1f26e,0x03c502ef,0x010b0285,0xfc52fef4,
0xf92efa1c,0xf924f931,0xf674f81d,0xf525f56a,0xf541f512,0xf810f638,0xfb59fa17,0xfb60fb69,
0xfca4fc25,0xfb06fc14,0xf93dfa01,0xf9cdf91c,0xfc84fb0d,0xfddafd80,0xfe69fe43,0xfc90fddc,
0xf7c4fa42,0xf28ef556,0xedc1f008,0xf179ed0b,0x0a25fc12,0x25b91885,0x3985312b,0x3a733cc6,
0x1f083133,0xf54f08c5,0xe5a0e8b1,0xf216e9ef,0x0561fc9f,0x041e073a,0xfe03012e,0xf876fa30,
0xfa00f8e9,0xf8c1fa55,0xf4d3f661,0xf4ebf490,0xf60cf51f,0xfa61f829,0xfba9fb93,0xfc2efbbf,
0xfc05fc48,0xfa71fb73,0xf97bf98b,0xfb6dfa3e,0xfd0dfc80,0xfe18fd8e,0xfda5fe28,0xf9effc41,
0xf412f725,0xeee9f146,0xecc0ec93,0xff08f306,0x1be30d86,0x34662943,0x3d753b4b,0x2e4439f5,
0x04481ab0,0xe6d6f168,0xedb2e661,0xfda3f6ee,0x02c7016a,0x0182028e,0xfbf2ff1e,0xf8edf9b7,
0xf8a8f8ec,0xf5a8f76b,0xf4fcf4af,0xf635f59d,0xf89df734,0xfae7fa1c,0xfbdafb1b,0xfce8fcc8,
0xfae7fc2b,0xf920f9b6,0xfa41f957,0xfca4fb7e,0xfdeffd5e,0xfe31fe6e,0xfb8ffd1a,0xf71cf9a0,
0xf13bf400,0xed8cef51,0xf4c6ee15,0x0fdf014d,0x2a881dc2,0x3c8b3572,0x38083df6,0x16962a73,
0xed94fff9,0xe5d4e50f,0xf7a4eca1,0x075802f7,0x00ce046e,0xfcd7fea2,0xf9b3fb42,0xf9caf92a,
0xf75cf95d,0xf416f533,0xf580f47a,0xf774f65e,0xfa88f908,0xfbb8fb55,0xfca5fc46,0xfb49fc33,
0xfa36fa92,0xfa17fa0c,0xfb64fa97,0xfce0fc1c,0xfe01fdab,0xfd10fdcf,0xf90bfb71,0xf30ff612,
0xeeaff0c5,0xee94ecd5,0x0470f6f1,0x215c1350,0x38272df0,0x3e413e33,0x263136c9,0xf9c10f6c,
0xe5adeac9,0xf181e973,0x000bf9e2,0x033a02e9,0x00950260,0xfacafdab,0xf90df932,0xf8c0f98b,
0xf45af643,0xf537f44e,0xf699f607,0xf908f777,0xfb5bfaa0,0xfcb8fbd3,0xfc7ffd28,0xfa1dfb44,
0xf940f96b,0xfa78f990,0xfcbffbc9,0xfdd5fd4a,0xfda6fdfc,0xfadcfcc1,0xf5eff890,0xf07bf2e0,
0xecdcee4e,0xf955efe5,0x15ec0728,0x31442402,0x40c93b95,0x33543f0b,0x07731ed2,0xe75cf34c,
0xe9c2e50d,0xfe62f2fb,0x06510626,0xffff02c8,0xfba1fdd3,0xf99ffa17,0xf962f996,0xf708f8a3,
0xf43ff536,0xf51cf446,0xf83ff69e,0xfadef9c0,0xfc29fb73,0xfd03fce8,0xfb3efc58,0xf9e0fa70,
0xf9f3f981,0xfbb6fada,0xfd22fc7e,0xfdfefdc9,0xfc5ffd69,0xf727fa33,0xf209f48c,0xee3aefc3,
0xf214ee03,0x0a30fc2e,0x272318fc,0x3d2033ee,0x3d4b40ea,0x1a4a2f9d,0xf00e033f,0xe652e601,
0xf5fded76,0x00b1fc78,0x043f02f1,0x00ae0428,0xf897fbb5,0xf9a9f83d,0xf8d4fa57,0xf430f62b,
0xf47df3c9,0xf77df5c8,0xfa45f925,0xfacbfab1,0xfd0bfb9a,0xfc64fd79,0xf9aefad4,0xf99bf945,
0xfb40fa71,0xfc37fbbe,0xfdcafce5,0xfda7fe4e,0xfa41fc36,0xf49bf78d,0xef44f1cd,0xed52ed3e,
0xfde9f2a5,0x1aaa0c37,0x366828f3,0x43083fb9,0x2e933e5a,0xfdd016a9,0xe3a6eb3c,0xee40e5cd,
0xff79f86c,0x038702c4,0x015102be,0xfbb4feed,0xf930f985,0xf8ebf968,0xf5c7f788,0xf433f47b,
0xf632f4f3,0xf8d4f77b,0xfb30fa3c,0xfc3dfb9f,0xfca9fce6,0xfab7fbad,0xf966f9e6,0xfa26f983,
0xfc3afb2e,0xfdd5fd15,0xfe03fe2e,0xfbfdfd64,0xf6edf9c5,0xf0e7f3ac,0xed08eecc,0xf536ee20,
0x109b01c8,0x2ccd1ef6,0x40f73925,0x396f421f,0x0f5326cf,0xe8c2f86f,0xe735e3c8,0xf974ef66,
0x079902fb,0x01e105da,0xfb42fe1e,0xfa6bfa3a,0xfa20faab,0xf730f8c2,0xf4d2f5ae,0xf549f4ed,
0xf6e6f5c2,0xfa78f8b9,0xfc2afb89,0xfcc9fc9e,0xfb43fc51,0xf9e1fa6c,0xf977f954,0xfbaefa66,
0xfdbbfd0d,0xfdb6fda2,0xfcdcfdb1,0xf8fbfb35,0xf364f68c,0xee01f025,0xede5ec6d,0x03a3f614,
0x21b312d8,0x3c3f300e,0x43224313,0x24783999,0xf35a0a09,0xe382e5ee,0xf2d1e987,0x003cfad5,
0x03d70313,0x016e038d,0xfa71fd8f,0xf92ef942,0xf7dff8f3,0xf562f66b,0xf503f4e8,0xf698f5b5,
0xf950f7c1,0xfb61fab2,0xfc99fbc7,0xfcaafd39,0xfa20fb52,0xf906f953,0xfa93f983,0xfcf2fbcd,
0xfe18fdb1,0xfe45fe66,0xfae2fd18,0xf621f86c,0xf07ef36b,0xec1fede3,0xf6f8ee43,0x144d04d3,
0x3207235b,0x45683e7d,0x37ff4440,0x059f20d0,0xe3e3ef85,0xe9f7e313,0xfb75f36c,0x04220113,
0x034704e4,0xfafbff0a,0xfa9ef9db,0xf9ccfaf4,0xf5c2f7c2,0xf470f47d,0xf60df523,0xf7daf6f7,
0xfa86f90f,0xfc8efbb4,0xfd12fd25,0xfac5fc1b,0xf979f9db,0xfa12f98a,0xfb81fab0,0xfdc3fcb1,
0xfe47fe62,0xfcc5fdad,0xf7e4fadb,0xf1eef4aa,0xee1aeff6,0xf06ded21,0x07e9f9dc,0x26811773,
0x400834b4,0x423945ba,0x1b0a32d1,0xec0600f0,0xe467e2d9,0xf6f7ecbc,0x01fffe45,0x031a033e,
0xff3a01e7,0xfa2bfc30,0xf970f970,0xf7bff90a,0xf469f5ed,0xf4bdf40a,0xf72cf5ed,0xf99bf85b,
0xfbddfade,0xfd40fc9d,0xfbfefd2f,0xf9affa97,0xf97ef943,0xfb5cfa53,0xfd30fc5b,0xfe44fdc2,
0xfdb1fe84,0xf9a5fbcf,0xf448f749,0xeeccf121,0xed1ced03,0xfd80f272,0x1b0d0be7,0x377b29c9,
0x45f441b3,0x2ebc4095,0xfb0d14dc,0xe225e8cc,0xeef0e57a,0xff7cf907,0x038b0283,0x006d02e5,
0xfb1ffd3b,0xfa92fa84,0xf8fffa2b,0xf51ff737,0xf44cf3fe,0xf63cf533,0xf819f725,0xfb2ef98a,
0xfdb9fcad,0xfd08fddf,0xf9f9fb6b,0xf965f96f,0xfab4f9da,0xfc39fb66,0xfdcbfd23,0xfe81fe59,
0xfc00fdbe,0xf703f9ba,0xf134f3e1,0xed54ef2b,0xf23bed4f,0x0c04fd31,0x2a951b82,0x43d238a4,
0x414c4880,0x11fb2d64,0xe6e8f7a1,0xe6b1e20c,0xf986f083,0x023aff26,0x02580334,0xfd07fff9,
0xfa01faf2,0xf9a5f9b7,0xf76df913,0xf470f56c,0xf51af486,0xf6fcf604,0xfa48f860,0xfccdfbdd,
0xfd88fd52,0xfb42fcd4,0xf93bf9f1,0xf9c7f92a,0xfb55fa87,0xfd96fc68,0xfeb6fe7c,0xfd2cfe24,
0xf8f9fbb2,0xf2ecf5b3,0xee9ff085,0xed8aed0d,0x00b1f3fb,0x1fbd103d,0x3c972ec7,0x48274652,
0x270d3dde,0xf1d70a5b,0xe1ace408,0xf25be824,0x010efb49,0x03b203c1,0xff3d01ca,0xfa7ffc8d,
0xfa34f9ec,0xf91bfa33,0xf4b9f6d2,0xf438f3ec,0xf605f50b,0xf912f758,0xfc58fae6,0xfd4bfd03,
0xfc2cfd25,0xf9b2facd,0xf8d3f919,0xfa7ef93a,0xfd60fbfd,0xfe96fe31,0xfebeff07,0xfb39fd58,
0xf59af897,0xef58f255,0xeb4aecd9,0xf62deda6,0x13b603d3,0x32c62379,0x4853400d,0x3a994801,
0x03dd2111,0xe1e7ed0b,0xea65e215,0xfd36f512,0x02fa0184,0x026e037a,0xfbc9ff1a,0xf9d8fa10,
0xfa3ffa4a,0xf675f8fc,0xf3ddf43a,0xf5aef4c2,0xf75ff677,0xfa95f8bd,0xfd32fc30,0xfd94fdaf,
0xfb33fcb4,0xf8e8f9bf,0xf9a7f8e8,0xfb85fa98,0xfd97fc8c,0xfed2fe85,0xfcb0fe2b,0xf80cfa68,
0xf2a3f5b9,0xed0def8c,0xee6aeb90,0x05e7f7db,0x259615aa,0x41c834c6,0x46f949ac,0x1d65370d,
0xeb2b00dc,0xe2fce19d,0xf656ec14,0x0139fd1f,0x037d037a,0xfe810181,0xf980fb85,0xf960f8f6,
0xf8e6f9b1,0xf4eef6dd,0xf432f416,0xf66ff507,0xf99af804,0xfc59fb23,0xfdddfd47,0xfc22fd7c,
0xf989faa8,0xf8eef8da,0xfab8f9c4,0xfd30fbd2,0xff12fe4f,0xfdf7ff11,0xfa75fc65,0xf430f7b0,
0xee93f0fe,0xebbfec6a,0xfaa5efe4,0x19b309cd,0x37ff2941,0x4a67440d,0x327d4558,0xfa1f168c,
0xe043e6cb,0xee05e417,0xfee5f842,0x03fd0249,0x014803d6,0xfb19fdcd,0xf973f9aa,0xf92bf98b,
0xf649f819,0xf42bf49f,0xf59cf4c3,0xf7a5f66e,0xfb9bf99b,0xfd32fc9f,0xfd6bfdca,0xfaa4fc12,
0xf8e9f975,0xf9c3f91e,0xfc1cface,0xfe2efd34,0xff69ff33,0xfc91fe64,0xf6cdf9fe,0xf063f366,
0xec6eee3c,0xf0d6ec22,0x0b22fbdb,0x2b421b67,0x46483a44,0x44794b7c,0x120b2f61,0xe4f0f672,
0xe50bdfca,0xfa87f03b,0x02ab005c,0x020b02f8,0xfd3cffe0,0xfa16fb55,0xf91bf967,0xf78ff898,
0xf528f62c,0xf4eaf4e5,0xf62ef533,0xf9c9f7c2,0xfcc8fbba,0xfd63fd2f,0xfc11fd1f,0xf99cfaa3,
0xf92af91c,0xfab9f9bc,0xfd8afc33,0xff5cfe87,0xfdf0ff47,0xf9a5fbf5,0xf344f6c3,0xedb9f00d,
0xec2aebbd,0xff31f2a2,0x1ebe0ed2,0x3d312e60,0x4bc348ab,0x290640f4,0xf19c0b6e,0xdfe9e2ae,
0xf1e3e68e,0x0137fbee,0x034102d9,0xffa30263,0xfa9efc7f,0xfa71fa30,0xf8c1fa2b,0xf516f6c7,
0xf4ccf468,0xf5a2f54c,0xf828f683,0xfc25fa4b,0xfd81fd10,0xfcbefd8d,0xfa3bfb76,0xf8c7f94a,
0xf9b4f8e0,0xfc9cfb0d,0xfeeafdf3,0xff2aff7d,0xfbccfde9,0xf579f8ba,0xef54f256,0xeb69ecf8,
0xf469eccb,0x121e020c,0x31b421ef,0x4a2a4037,0x3dbd4b12,0x05552381,0xe084ed08,0xe8dae036,
0xfde9f4b5,0x0344025a,0x00fa027e,0xfcbffee4,0xfa35fb27,0xf90af9a8,0xf6baf80e,0xf4b5f55e,
0xf513f4d7,0xf6cef594,0xfa9ff888,0xfd33fc74,0xfd46fd57,0xfb68fc8c,0xf999fa6e,0xf959f921,
0xfafdf9ef,0xfe30fca8,0xff48ff15,0xfd0bfeb7,0xf875fa86,0xf254f615,0xed50ef3c,0xedffebe1,
0x049bf699,0x24451493,0x417c33b2,0x49464a4f,0x1f093a04,0xead50179,0xe11fe02a,0xf5edea20,
0x02affed9,0x036903c6,0xfd7f00df,0xf9e1fb07,0xfa5efa09,0xf845f9b8,0xf502f67e,0xf44df450,
0xf631f507,0xf953f775,0xfc8dfb69,0xfd29fce6,0xfc47fd1e,0xf9f8fb0b,0xf907f92a,0xfa81f99f,
0xfcc7fba1,0xff10fddf,0xfe70ff72,0xfacefcd2,0xf425f7ca,0xee3ff0cb,0xebfaec7f,0xf9b6ef8e,
0x18aa08b8,0x37942839,0x4b2d4475,0x343646e9,0xfab41775,0xdf05e6a5,0xecbfe275,0x010df8a2,
0x035b03ee,0x004001e2,0xfc68fe74,0xfa1ffadf,0xf82bf932,0xf5c7f71e,0xf4bcf4f2,0xf552f4bd,
0xf7fdf677,0xfbbaf9ec,0xfccffc9b,0xfd08fd14,0xfb31fc3d,0xf8f1fa07,0xf938f89f,0xfc15fa78,
0xfe8dfd8e,0xfed5fef4,0xfd51fe75,0xf7acface,0xf196f496,0xecf1ef1f,0xef3debac,0x090cf9ed,
0x28b618fa,0x460d386d,0x47094cce,0x14cd32a9,0xe4caf7c8,0xe395dec5,0xf991ee8e,0x03570087,
0x022a0376,0xfd3ffff4,0xfa9cfb6a,0xf91df9cc,0xf78ef885,0xf549f659,0xf4b6f4cb,0xf66ff517,
0xfa55f85f,0xfc7ffbe2,0xfd1bfcc1,0xfb9ffcbd,0xf9a9fa77,0xf9a6f968,0xfb12fa46,0xfd16fbfc,
0xfee3fe1d,0xfe7fff2a,0xfa25fcc7,0xf362f6e3,0xedc3f032,0xec06ebe4,0xfd70f189,0x1cc50ce3,
0x3be42c8b,0x4d15483c,0x2cd04469,0xf2bd0e10,0xde67e21d,0xf0bee504,0x0265fbcb,0x03110428,
0xff2b013c,0xfb2efcee,0xf9bffa3e,0xf82df922,0xf5bbf705,0xf48af4b4,0xf5cbf50d,0xf87ef6d2,
0xfc42faa4,0xfd05fcdb,0xfc75fd09,0xfa8cfb69,0xf941f9dd,0xf9e1f93e,0xfc55fae0,0xfee0fdd7,
0xff55ff8a,0xfc17fdf1,0xf694f9ce,0xef48f2ca,0xeaebec88,0xf341ec3d,0x10310047,0x2f091fd3,
0x496a3ddb,0x42c44d16,0x09112903,0xe02fee97,0xe6c4ded9,0xfc90f284,0x03a901e5,0x019b035a,
0xfd2bff49,0xfa58fb9b,0xf81af923,0xf701f763,0xf544f666,0xf4adf488,0xf6f9f55e,0xfb2cf941,
0xfc95fc49,0xfcc7fca1,0xfbb0fc89,0xf96dfa76,0xf95bf90d,0xfb6efa3e,0xfdcbfc94,0xff8aff15,
0xfd27fea7,0xf867fb26,0xf1a8f517,0xeceaeefa,0xedadeb7c,0x042df645,0x23661406,0x40253221,
0x4b7e4a69,0x23303e57,0xea95036d,0xdf39de78,0xf4bce8b5,0x0293fdee,0x030a03f2,0xfeeb00eb,
0xfb7efd14,0xf9f3fa9b,0xf79ff8f9,0xf53ef640,0xf48cf4b9,0xf571f4a8,0xf95df70d,0xfcd2fbb4,
0xfcbffccb,0xfc24fcbd,0xfa5afb33,0xf919f97e,0xfa6bf982,0xfd12fbc3,0xfef4fe08,0xfeacff7a,
0xfa32fca0,0xf45af784,0xee2ff104,0xeaf4ebdc,0xf900eeba,0x176d07af,0x356526ac,0x4bad42ba,
0x3a784ab5,0xfd761d0f,0xddbfe6d6,0xeaf6e0ae,0xfeeaf692,0x041e0343,0xffed0234,0xfd2dfe85,
0xfa21fb88,0xf8e1f97a,0xf59ff76c,0xf44cf47f,0xf518f48b,0xf7c2f622,0xfb82f9d9,0xfcfefc5f,
0xfd41fd69,0xfb0ffc5a,0xf91ff9f0,0xf96ff8d0,0xfc0cfabb,0xfe1afd2a,0xff30fed9,0xfbebfe4d,
0xf6def951,0xf106f3ed,0xec23ee73,0xefabeb82,0x0a55fabb,0x29011a21,0x4490378f,0x49f84cbe,
0x178f36db,0xe3e2f881,0xe1f9dd0f,0xf869ed25,0x0397fff9,0x02100406,0xfe0bffb5,0xfb83fcc3,
0xf90bfa28,0xf6a0f800,0xf4e3f567,0xf4e8f4d6,0xf66ef55e,0xf9f8f80f,0xfc41fb83,0xfce7fc7d,
0xfc4cfd20,0xf9a3fad7,0xf8faf90a,0xfaa5f978,0xfd78fc1b,0xff41fea6,0xfe6bff26,0xf9ebfcb3,
0xf2edf68d,0xedb0efdf,0xeb1feb8a,0xfc84f05c,0x1ccd0c9e,0x39fb2bcd,0x4dff46a5,0x32e848d3,
0xf42f1271,0xdcabe186,0xef2ee2f6,0x00bcfa7a,0x03750338,0xff430193,0xfcdbfdc9,0xfa5efbd0,
0xf7f2f914,0xf51df672,0xf4d0f4b6,0xf4ddf4bd,0xf7d9f5ce,0xfc56fa80,0xfcc3fcd1,0xfc50fcae,
0xfa92fb82,0xf910f9c5,0xf952f8c8,0xfc30fa85,0xff4ffdf7,0xff54ffef,0xfbfdfdb6,0xf6c1f9d7,
0xf031f359,0xeb3bed65,0xf10feb5a,0x0e39fdce,0x2d6e1e4e,0x49253c11,0x47c14fb2,0x0d352ecc,
0xdf8cf018,0xe4afdcbd,0xfbf7f14a,0x038701bf,0x00e902e6,0xfcf3feb1,0xfad3fbad,0xf9b1fa6a,
0xf6b7f833,0xf4fbf5ba,0xf4a2f47b,0xf694f568,0xfac8f87f,0xfc4ffc1d,0xfc87fc58,0xfb8afc52,
0xf9c4fa96,0xf932f93a,0xfb03f9c4,0xfddafc96,0xffa1feeb,0xfe42ff7b,0xf86cfbab,0xf20bf557,
0xed5eef49,0xec75eb89,0x00dbf3ae,0x20e210ee,0x3f29302e,0x4ff24ba9,0x28114443,0xeb830657,
0xde3bde16,0xf358e779,0x015ffc60,0x02d70367,0xff2a00f1,0xfc32fdae,0xf95efaa4,0xf7e0f881,
0xf600f731,0xf3e7f49b,0xf573f442,0xf8b5f6f5,0xfc19fac0,0xfca0fc5a,0xfc5cfcef,0xfa30fb34,
0xf92df972,0xfa34f983,0xfcdcfb4c,0xff32fe49,0xff09ffa0,0xfb83fd5b,0xf542f910,0xee62f165,
0xea68ebc2,0xf581ecd7,0x14d6043c,0x33412454,0x4c6c4157,0x41264ef6,0x01a8237e,0xdcc5e81e,
0xe949dedc,0xfdb3f52a,0x03a3026b,0xff7201c9,0xfd7bfe28,0xfbcffce6,0xf88efa3a,0xf5c8f6f9,
0xf4d9f53b,0xf495f474,0xf66ff521,0xfb98f909,0xfc93fc9e,0xfcbefc97,0xfb7ffc6e,0xf996fa72,
0xf990f922,0xfbcdfaa5,0xfe3ffd07,0xff38ff20,0xfc7ffe4b,0xf7b1fa4a,0xf08af402,0xec5bee81,
0xee58eafe,0x0746f854,0x26c31781,0x43fc35af,0x4e0f4e3c,0x1d0f3cce,0xe4e5fbe6,0xe029dc2b,
0xf71ceb50,0x02c6ff27,0x026303a0,0xfe130009,0xfac1fc54,0xf9d9fa08,0xf7cef930,0xf509f654,
0xf455f441,0xf5caf4f1,0xf8fef702,0xfbd0fafc,0xfd23fc56,0xfc7cfd3c,0xfa50fb6a,0xf937f980,
0xfa91f992,0xfd15fbda,0xff2dfe53,0xfdfbff15,0xf9c7fbfc,0xf3a2f751,0xedc3eff8,0xeb92ebfb,
0xfb8ef044,0x1b500b2b,0x38ef2a53,0x4ead4660,0x360e4aef,0xf5d9153c,0xdc87e1fa,0xeeafe306,
0xff84f8f5,0x03c002e5,0xffd10240,0xfc42fdde,0xf9d5fad3,0xf8a5f95e,0xf5c5f729,0xf402f4b2,
0xf509f43e,0xf7f3f636,0xfb07f9cb,0xfc77fb9b,0xfdbffda3,0xfaebfc7b,0xf92cf9ba,0xf9f9f96e,
0xfbc4fa9b,0xfec7fd57,0xfec0ff60,0xfbb2fd50,0xf6c2f9c8,0xefcaf2ee,0xeb96eda6,0xf09ceb27,
0x0d96fd42,0x2d181dc0,0x48fb3bed,0x49b6501c,0x106c3220,0xdf85f19b,0xe456dc6b,0xfa85f05c,
0x035000c4,0xffce025b,0xfe06fe75,0xfa6efc96,0xf846f8ef,0xf7aef801,0xf573f6b3,0xf474f4bd,
0xf61df4ba,0xfaa3f86c,0xfb85fba4,0xfcf8fbd3,0xfc36fd4c,0xf9dbfad6,0xf96af962,0xfb2ef9fb,
0xfde1fca0,0xff5dfed1,0xfe54ff5b,0xf8ddfc18,0xf1edf53a,0xec17eef5,0xeb64ea23,0xfff4f292,
0x1ff3103e,0x3db02ee5,0x51284ad2,0x2e9b485b,0xee610c7f,0xdcc2de0f,0xf11ee54f,0x00b2fac1,
0x02b20331,0xfe7a0081,0xfb84fd2c,0xf8dbf9ba,0xf8d8f8d8,0xf61af7d7,0xf48ff4e7,0xf546f4b4,
0xf847f67f,0xfb44fa10,0xfc25fbb6,0xfc9dfcb5,0xfae5fbe0,0xf9adfa10,0xf9eaf97f,0xfcdbfb42,
0xff03fe2a,0xff38ff77,0xfb08fd8d,0xf5aff8c5,0xee0cf17c,0xea10eb99,0xf464ec0f,0x134202ab,
0x3226230b,0x4c684099,0x44f95096,0x05a7287b,0xdc94e9c1,0xe799ddb7,0xfbdff341,0x031900ed,
0x00260260,0xfce3fe6b,0xfa19fb26,0xfa15f9fc,0xf711f933,0xf3cbf4ef,0xf4e6f3de,0xf738f616,
0xfa66f8c4,0xfb76fb37,0xfcfdfc36,0xfbb3fca7,0xfa05fabe,0xfa00f9d2,0xfb84fa8f,0xfdfbfcca,
0xff2bfeaf,0xfda8ff14,0xf88bfb55,0xf13ef509,0xebb6ee31,0xec02e9dd,0x0352f4f7,0x237013b3,
0x41d532bf,0x52704e1a,0x27e34656,0xe67d02f8,0xdd95da80,0xf481e8a2,0x019cfced,0x00cd02bf,
0xfde0fe98,0xfbf5fd58,0xf985fa76,0xf820f8e6,0xf57bf6e1,0xf477f48c,0xf5bbf501,0xf92af717,
0xfb2efac3,0xfc21fb60,0xfc40fc8c,0xfae6fbb4,0xf9e7fa42,0xfa76f9ba,0xfce7fbcc,0xfeb0fdeb,
0xff6dff3a,0xfb6dfe5b,0xf415f773,0xedd4f117,0xe9f1eb37,0xf5c8ec7e,0x15000491,0x347724e7,
0x4f8e436d,0x44a152db,0xff5d247e,0xda16e45c,0xe970de23,0xfd44f50c,0x034501d8,0xff1301b0,
0xfc8bfd8a,0xfa08fb3d,0xf8ebf945,0xf6f1f86d,0xf46ef51d,0xf533f4c1,0xf70af5d3,0xfa6df8ac,
0xfbbafb8f,0xfc66fc00,0xfb8dfc1b,0xfa8bfb10,0xf9f8fa18,0xfb98fa82,0xfe8dfd07,0xff91ff7a,
0xfd7dff11,0xf689fa40,0xef87f340,0xea24ec2d,0xed7be984,0x08bff8a7,0x29731992,0x47ee38f9,
0x521e533e,0x19bc3d23,0xe005f679,0xe112da41,0xf7fded56,0x0213fe73,0x00ef02e2,0xfd79fea9,
0xfb68fc8e,0xf999fa65,0xf7c0f8ca,0xf509f660,0xf470f455,0xf611f50b,0xf97bf79b,0xfb7bfb07,
0xfc13fb86,0xfbf1fc66,0xfa2efb19,0xf9c2f9a2,0xfae8fa38,0xfd6dfc18,0xff7dfe89,0xfe56ffa0,
0xf990fc08,0xf40bf738,0xec2befbc,0xea27ea35,0xf9c3eeb7,0x1a250969,0x39a82a45,0x52d54801,
0x3bcb5123,0xf5ab18ab,0xdaa1dfc2,0xee19e1ac,0xfee5f894,0x025a023d,0xfee30091,0xfc2ffd8e,
0xf96ffaa3,0xf849f8ce,0xf60df766,0xf477f4d5,0xf554f4d3,0xf787f60c,0xfb45f99b,0xfbb9fbc0,
0xfcaafc3a,0xfb1efc20,0xf9e0fa4d,0xfa09f9d9,0xfbf0fab1,0xfeaffd55,0xfff1ffc4,0xfbc7fe8c,
0xf653f8f5,0xeee2f2dd,0xe99ceb89,0xf049ea70,0x0c93fc5f,0x2c4e1ce2,0x4a733bdd,0x4ff8541f,
0x12e837a1,0xdd86f11d,0xe331daa8,0xf9feefa9,0x0259fff9,0xffa001b3,0xfd9dfe48,0xfaeefc8f,
0xf889f959,0xf797f840,0xf55df668,0xf4a7f4d2,0xf5aaf4cf,0xf9d6f7a1,0xfb33faff,0xfbe1fb6e,
0xfbf4fc1a,0xfa78fb5e,0xf976f9c4,0xfae6f9c6,0xfe06fc7c,0xffcdff3b,0xfdedff5c,0xf97bfbe0,
0xf206f658,0xeba8ee09,0xea0be9dd,0xfddef065,0x1f090ea9,0x3e1e2eb3,0x55f44cb2,0x33084f05,
0xed4c0d4e,0xdb06dbe6,0xf245e561,0x00b1fba8,0x019d0289,0xfe87ffc3,0xfab0fcf1,0xf8acf903,
0xf8b5f8f9,0xf5a8f77e,0xf436f44b,0xf5e6f4ea,0xf842f6f3,0xfb4ffa0f,0xfbb9fb79,0xfc78fc6a,
0xfa75fb8b,0xf943f9ad,0xf9e5f947,0xfc75fb2f,0xfec2fd81,0xff4fff86,0xfbf4fe3a,0xf5d4f906,
0xed7af1b7,0xe91fea87,0xf322eb02,0x12100166,0x311a21fc,0x4e6e4053,0x4b2b555f,0x06702cc1,
0xddade98d,0xe937dfe0,0xfac7f33d,0x0120ff7d,0xfeec004c,0xfca4fdcb,0xfa45fb70,0xf87ef953,
0xf6d6f7b5,0xf4bff59f,0xf4b0f49e,0xf68cf531,0xfa67f86b,0xfbb7fba3,0xfc54fbdc,0xfb22fc06,
0xf971fa3a,0xf969f936,0xfb51fa02,0xfe01fcb9,0x000eff6f,0xfd72ff31,0xf906fb39,0xf23af662,
0xeae2edf2,0xea33e8d3,0x0161f290,0x22db1281,0x425a32b2,0x569b5024,0x2b0b4b27,0xe7cb0455,
0xde6fdbf2,0xf487e90f,0x0041fc51,0x00080117,0xfdd6fec3,0xfb22fcd9,0xf8e9f978,0xf7f5f8b9,
0xf4f0f689,0xf473f42b,0xf60df51a,0xf8d2f752,0xfb3afa6d,0xfb91fb3a,0xfc0dfc22,0xfa60fb43,
0xf928f9a8,0xfa23f94a,0xfc5efb38,0xff7cfde5,0xff30ffff,0xfb07fd79,0xf498f80b,0xed90f0fc,
0xe8eeea7c,0xf539ebb5,0x15240457,0x3557254f,0x52f3455b,0x47d35721,0xfe1e24e4,0xdb04e3dc,
0xeafadfd2,0xfcd4f5bf,0x00d50028,0xfebefff9,0xfc6dfda4,0xf999faec,0xf8c8f916,0xf653f7d7,
0xf440f4d4,0xf4c3f476,0xf715f583,0xfab9f90e,0xfb48fb71,0xfbe7fb62,0xfb5ffbd7,0xfa1efadc,
0xf953f97c,0xfb59f9f8,0xfe32fcdc,0xffd1ff37,0xfd43ff4e,0xf7f8fab3,0xf096f47c,0xeaa3ed3f,
0xec3ce946,0x05a4f62a,0x26d316a9,0x469136a7,0x57335426,0x219845b2,0xe28efb6a,0xe07edadd,
0xf7cfeca0,0xfe91fda0,0xfdedfdda,0xff09fedf,0xfa83fd1f,0xf8fcf92e,0xf85ff90e,0xf49ef67c,
0xf3d3f3be,0xf62ff4c6,0xf95bf7b5,0xfb5efac2,0xfbf1fb96,0xfbb8fc13,0xfa30fb03,0xf960f988,
0xfae1f9ed,0xfcfffbf7,0xfedefddb,0xff04ff96,0xfa5bfcfd,0xf47af7c6,0xece4f073,0xe8edea14,
0xf73bec87,0x186c0756,0x3874286c,0x562c48a4,0x438757ff,0xf7671d39,0xd9cbe001,0xed94e0a2,
0xff1ff953,0xfda9ff40,0xfe7ffd71,0xfd39fee1,0xf8e8fa8b,0xf871f883,0xf69bf803,0xf385f4b7,
0xf4b3f37e,0xf86af69a,0xfabcf9e3,0xfb12fae7,0xfc18fbb1,0xfa6cfb77,0xf9a0f9e2,0xfa22f998,
0xfc1bfb0e,0xfe5efd3e,0xff6bff3b,0xfd24fec8,0xf738fa68,0xef5ff394,0xe957ebca,0xeddae8fc,
0x0ab3f9dc,0x2b9c1bca,0x4ba93b84,0x55d45809,0x15ae3ce6,0xdddef231,0xe2eada40,0xfae3f036,
0xff4bff84,0xfda3fde7,0xfdd1fe15,0xfa2dfc2c,0xf912f92b,0xf7f7f8f9,0xf42cf5fc,0xf444f391,
0xf727f5a3,0xfa3cf8c6,0xfafefb00,0xfb8efaf9,0xfb24fbe7,0xf97dfa0b,0xf9a6f968,0xfaa0fa00,
0xfdaefc0b,0xff86fec4,0xfe18ff74,0xfa24fc4b,0xf32af72b,0xebcceed4,0xe8e2e988,0xfbadee7b,
0x1dc20cd1,0x3da32db3,0x597a4d4d,0x398b55f5,0xedc11066,0xd9f0db40,0xf1dbe437,0x0014fc01,
0xfe3dffe1,0xfe10fd7c,0xfc60fe21,0xf8bafa00,0xf8c4f8ac,0xf5f7f7f4,0xf2eaf3d1,0xf4c4f366,
0xf8e5f6c7,0xfb71faa3,0xfb66fb3b,0xfc67fc36,0xfa86fbaf,0xf892f94a,0xfa07f8e6,0xfc27fb32,
0xfec1fd54,0xff86ff9a,0xfcb5fe9a,0xf6affa2e,0xed9bf1d6,0xe930eb2b,0xefc9e94b,0x0e1afd24,
0x2f551f45,0x4fc43f5a,0x54355ae5,0x0d90367d,0xda5aeb55,0xe53eda5d,0xfc72f30b,0xfee8ff93,
0xfde3fdb6,0xfd80fe4f,0xf9a7fb95,0xf931f8f3,0xf775f907,0xf38af512,0xf3c0f327,0xf6fff543,
0xfa80f8ca,0xfb43fb52,0xfc89fb98,0xfb75fc98,0xf953fa2b,0xf951f914,0xfac8f9e9,0xfd7bfbf2,
0xffe5ff1f,0xfdceff32,0xf933fc0b,0xf14ef577,0xea5fed42,0xe9fae8be,0x00e6f204,0x22ad1226,
0x42ec32a7,0x5b2c52ac,0x2e045006,0xe5cb0454,0xdc5fd960,0xf4d4e82b,0x0003fd19,0xfe32ff52,
0xfe40fe10,0xfc5afdf1,0xf930fa5d,0xf7caf873,0xf505f6c4,0xf2e6f35f,0xf551f3b1,0xf954f768,
0xfb65fac8,0xfb7cfb26,0xfc7afc7d,0xfa3bfb64,0xf8a1f935,0xf998f8d2,0xfca6faf9,0xfee6fded,
0xff5bffa8,0xfbc3fdd2,0xf547f913,0xecfdf0ce,0xe8d4ea59,0xf377ead9,0x1372022a,0x345e245b,
0x547b44a5,0x4ccb5b31,0x0115299a,0xd949e422,0xe9fbdd79,0xfddaf6bd,0xfeb1ff7b,0xfddffdcf,
0xfd56fe20,0xf98bfb6f,0xf940f909,0xf691f870,0xf34df488,0xf3e3f34d,0xf740f532,0xfb03f94c,
0xfb76fba4,0xfc90fbe3,0xfb63fc67,0xf92cfa1e,0xf8ebf8c1,0xfb13f9bb,0xfdaffc8f,0xff69fe9d,
0xfde5ff44,0xf7a3fb59,0xf0acf406,0xe966ecb7,0xeb70e84a,0x05a3f5ab,0x26e716b9,0x475136de,
0x5b09566a,0x23f849a5,0xe0bdfb70,0xdeb7d87e,0xf7cfebeb,0xff35fdea,0xfe6efeb0,0xfe1ffe91,
0xfaf7fcc5,0xf96cf9ac,0xf854f95b,0xf412f649,0xf2d3f2af,0xf5e1f424,0xf996f7c8,0xfb91fb03,
0xfbcbfb71,0xfbfafc46,0xfa30fb3b,0xf8f4f93c,0xf9e8f926,0xfcaffb48,0xfef1fdee,0xfea3ff4a,
0xfac2fd0d,0xf3b6f7a8,0xec60efa6,0xe888e9bc,0xf819ecaf,0x18d507fa,0x391d291f,0x57eb497d,
0x455c5a41,0xf6021da2,0xd8c1de13,0xee0ae0ab,0xfec5f95a,0xfeb7ff92,0xfe64fe2e,0xfd4dfe74,
0xf971fb1b,0xf8c4f8f8,0xf5c4f7c6,0xf2e7f3d0,0xf427f31b,0xf7aef5ad,0xfb7bf9f4,0xfb8dfbad,
0xfc19fbf8,0xfadffb93,0xf932fa01,0xf910f8d1,0xfb54f9f5,0xfe21fcd9,0xff9cff15,0xfcd1fefa,
0xf70ef9eb,0xef20f3a0,0xe8c4eb1b,0xedc2e8ae,0x0b0dfa3a,0x2c021bd9,0x4bbf3bee,0x59105952,
0x17994088,0xdc2ef17c,0xe270d949,0xfa42efcc,0xff11feca,0xfe72fe50,0xfe65fee8,0xfa3cfc78,
0xf96cf94c,0xf770f90f,0xf365f51e,0xf365f2e9,0xf6a6f4b2,0xf9d0f87c,0xfb13fac6,0xfbfbfb36,
0xfbb5fc67,0xf9f2faba,0xf904f94d,0xfa3bf951,0xfce5fb84,0xfeedfe30,0xfe82ff0b,0xfa63fcf8,
0xf253f692,0xeb54eeb6,0xe8a8e86c,0xfc71ef2e,0x1e580d72,0x3e492e49,0x5aad4e52,0x3c5157bb,
0xec7811a2,0xd993d9f1,0xf1e6e460,0xff46fb6e,0xfe3aff2f,0xfea8fe4e,0xfca4fe38,0xf94cfa84,
0xf892f912,0xf56af73d,0xf30af3e1,0xf3fcf306,0xf869f5e7,0xfb96fa93,0xfb67fb78,0xfc58fc0e,
0xfa87fbae,0xf8b9f961,0xf91df8b5,0xfba7fa12,0xfe70fd2f,0xff74ff76,0xfbd4fe1d,0xf59ef8f8,
0xed5df17c,0xe844ea3c,0xf213e9c6,0x11fa00cb,0x322f2276,0x50b641ce,0x528b5a33,0x09323353,
0xd934e7f2,0xe70adb63,0xfceff416,0xff45ffd5,0xfe8bfe8f,0xfe28fecc,0xf9ecfbfb,0xf8d5f92b,
0xf66cf7fc,0xf367f49d,0xf39af315,0xf691f4dc,0xfab4f89f,0xfbd5fbdf,0xfc6cfbe7,0xfb05fc17,
0xf951fa17,0xf87bf8c0,0xfa89f907,0xfd44fc0b,0xff0ffe5f,0xfddafeea,0xf8c4fbce,0xf176f555,
0xea95eda1,0xe9d4e842,0x02bdf327,0x249c142b,0x43a83437,0x59395196,0x2faf4fc7,0xe5fc05f8,
0xdc7cd8e8,0xf570e8bc,0xff42fd20,0xfe2ffeb6,0xfeeffe94,0xfb9afdf5,0xf92cf9a1,0xf813f90c,
0xf3c6f605,0xf2cff2b8,0xf51bf39b,0xf922f708,0xfbbbfb0b,0xfb37fb45,0xfbc0fbb9,0xfa8cfb4a,
0xf899f97a,0xf965f891,0xfbaefa80,0xfee0fd37,0xff30ffc8,0xfaadfd3e,0xf480f7dd,0xecc7f08e,
0xe807e986,0xf6a0ebc6,0x17c9068f,0x378627fd,0x53d24699,0x4a4c58db,0xfde226a5,0xd881e1c8,
0xeb96de7a,0xfe69f7ad,0xfef4ffe9,0xfe95fe49,0xfdb6fedf,0xf928fb13,0xf8f4f8ff,0xf614f7f2,
0xf276f3d1,0xf3adf293,0xf758f56e,0xfb12f955,0xfb90fba1,0xfc22fbdd,0xfb19fbda,0xf902fa12,
0xf88df858,0xfb15f9b2,0xfd23fc0e,0xffb4fe9e,0xfcfbff54,0xf73ef9ee,0xefbcf3fb,0xe9bdec02,
0xed9fe95c,0x0911f8d8,0x29df19f5,0x48043973,0x584c548b,0x213946fd,0xdf75f8f1,0xe08fd913,
0xf924edd8,0xffc1feca,0xfdc3fea1,0xfe0dfde2,0xfaebfcfb,0xf9acf9a9,0xf7bdf962,0xf2bbf50a,
0xf2f3f227,0xf5bff451,0xf941f735,0xfb8bfb1e,0xfbecfb7e,0xfb52fbf9,0xf9f4fa9b,0xf8d6f941,
0xf9cef902,0xfcb6fb20,0xfefcfe09,0xfecdffa8,0xf93dfc10,0xf2faf67e,0xebceef3d,0xe907e926,
0xfb4dee82,0x1ce90c47,0x3c492cb8,0x56ff4af4,0x41fa57aa,0xf33a1a31,0xd882dc73,0xefa9e1cd,
0xff4ffa58,0xfe6effe2,0xfe2afda0,0xfd70fe84,0xf9f1fb6d,0xf885f93f,0xf4e7f70e,0xf231f31d,
0xf3b9f250,0xf800f5ca,0xfb63fa18,0xfb85fb9c,0xfc24fbd9,0xfac9fbb8,0xf8bef9ad,0xf8ebf866,
0xfba9fa39,0xfe0dfcde,0xff90ff2e,0xfc5efe8e,0xf6c5f9c8,0xed8bf26b,0xe89aea48,0xefbae933,
0x0e5efd4b,0x2f111f3b,0x4d143e4a,0x568b58a3,0x147c3d72,0xdab4ef00,0xe36ad8ee,0xfac4f102,
0x00e4ff85,0xfe930029,0xfc2bfd22,0xfafbfb8c,0xfa40faa3,0xf69bf8e7,0xf2b8f430,0xf345f2aa,
0xf52bf3ff,0xf9edf73a,0xfbedfbc7,0xfbeafbb1,0xfad8fbb1,0xf9b7fa22,0xf945f968,0xfa87f999,
0xfd0bfbd6,0xff35fe2f,0xfd1afed9,0xf972fb74,0xf185f5dc,0xeaaeedcc,0xea18e882,0x00adf22d,
0x22a31233,0x40bc31da,0x57ef4e2e,0x374553d4,0xe9ba0cab,0xd9cad902,0xf34de57f,0x00dbfd03,
0xfeed0071,0xfe04fe2c,0xfc19fd8c,0xf971fa55,0xf839f91e,0xf46ff678,0xf2e7f315,0xf4a6f391,
0xf87bf63a,0xfb26fa72,0xfb11fb0c,0xfbabfb76,0xfa92fb51,0xf897f979,0xf970f8a6,0xfc07fa9d,
0xfe57fd52,0xff9fff40,0xfc34fe8c,0xf50ef910,0xed19f0cb,0xe76ae9b0,0xf333e9cb,0x13550248,
0x33072389,0x508a424f,0x53b45a50,0x082033c1,0xd833e69f,0xe79bdb01,0xfc95f4c0,0xffc9ff4b,
0xfdcdff16,0xfc32fce6,0xfb3bfb8b,0xfa24fb07,0xf5f1f849,0xf2dcf3d3,0xf3d0f319,0xf5fef4b5,
0xf9e3f7dc,0xfb74fb29,0xfc33fbc7,0xfaf2fbc3,0xf990fa56,0xf8aef8da,0xfa9cf94a,0xfd4bfc10,
0xfed8fe2e,0xfd6ffee4,0xf7a0faab,0xf114f4b6,0xe897ec92,0xeb65e730,0x07acf6ff,0x289e18d5,
0x46153801,0x57535188,0x28e94bb4,0xe2abff62,0xddf0d889,0xf7fceb36,0xffa5feda,0xfe08fe70,
0xfe49fe55,0xfab8fcf5,0xf9d5f986,0xf866f9ce,0xf36df5f1,0xf31cf264,0xf5f5f496,0xf875f70c,
0xfafbfa04,0xfbccfb84,0xfb4bfbb0,0xf9f9fabc,0xf8b8f90f,0xfa19f934,0xfc99fb5d,0xfe5dfd7c,
0xfeb3ff13,0xfae3fd17,0xf3f1f7f5,0xeb93ef77,0xe7e5e8bf,0xf74debf5,0x194807e3,0x38ee2985,
0x54af479e,0x4a4e5996,0xfc282579,0xd7efe07e,0xeca4decc,0xfe17f841,0xffa3ffea,0xfd32fe63,
0xfc0afc8a,0xfac3fb3d,0xf99dfaac,0xf4e7f753,0xf2fcf36f,0xf3baf2fb,0xf6ecf53b,0xfaf2f907,
0xfb2dfb6f,0xfbbefb56,0xfb45fbca,0xf95afa59,0xf8e8f8cd,0xfad0f996,0xfda5fc40,0xff2ffecc,
0xfc79fe71,0xf6fef9c5,0xeeaff343,0xe87aeb09,0xee36e85e,0x0c38fb26,0x2d231d4d,0x49ca3c3b,
0x57025489,0x1e214528,0xdd27f56f,0xe0d8d826,0xfa1ceed2,0xffa6ff40,0xfe4cfea2,0xfe83feb3,
0xf9ebfc83,0xf96cf8e6,0xf826f9a5,0xf2daf556,0xf303f203,0xf6f2f514,0xf93bf811,0xfa9bfa5c,
0xfb7efacc,0xfacffb86,0xf9f0fa61,0xf8fbf929,0xfae0f9ac,0xfce6fc1b,0xfeccfdb2,0xfea6ff6b,
0xfa39fca0,0xf2eaf733,0xea9eee5c,0xe7aae7d0,0xfac7ed98,0x1d7c0c28,0x3d332d8b,0x578e4bd8,
0x44cd595c,0xf2281b3e,0xd73adad8,0xefffe185,0xfeecfa70,0xfef2ff91,0xfdf0fe51,0xfbf9fd63,
0xf9f9fa69,0xf975fa39,0xf47bf728,0xf273f2a7,0xf4e1f397,0xf78df602,0xfaaef968,0xfb64fb18,
0xfbb2fbd7,0xfa77fafe,0xf917f9e2,0xf907f8bf,0xfb4bf9e7,0xfe57fcd6,0xffeaff92,0xfc8afec6,
0xf648f9b8,0xee14f257,0xe8eaeabe,0xeeede924,0x0dcafc30,0x2e731ee5,0x4ccc3dfc,0x5934585f,
0x177b42d5,0xd8ebee58,0xe2a0d742,0xfb80f178,0xfeddfefd,0xfe9afe6a,0xfdd3feae,0xf962fba2,
0xf9c4f8ef,0xf7a7f9a8,0xf2caf4e5,0xf310f210,0xf6a3f4fd,0xf9b7f81b,0xfab9fab0,0xfb9bfaee,
0xfb42fbd9,0xf9c7fa6b,0xf8d7f92f,0xfa40f923,0xfd77fbec,0xffbbfec4,0xfe58ff97,0xf989fc6a,
0xf2a8f63d,0xe9bcee24,0xe896e735,0xfce0efe6,0x1eca0d69,0x3f982f66,0x5b194f16,0x40675a33,
0xeb8513a1,0xd70dd78d,0xf2d8e343,0xff5cfccc,0xfe37fec8,0xfdcffe16,0xfb38fcdc,0xf9a6f9cb,
0xf971fa30,0xf487f709,0xf259f2e6,0xf4ccf31b,0xf82af68f,0xfafdf9d3,0xfb38fb44,0xfb89fb5c,
0xfa9ffb42,0xf8f3f9d8,0xf929f8a6,0xfbc5fa44,0xfe4dfd11,0x0009ff9c,0xfcd7ff00,0xf672fa09,
0xed3cf1d1,0xe7a1e9ce,0xf009e8b9,0x0f11fdbb,0x30362038,0x4efa3ff7,0x597b5ac3,0x12203f2a,
0xd70aea3b,0xe45cd789,0xfbd4f32e,0xfe56fe55,0xfe8cfe41,0xfd48fe64,0xf9b2fb60,0xf9c3f961,
0xf744f93d,0xf262f484,0xf3a6f233,0xf68df534,0xf98df825,0xfacbfa58,0xfba9fb30,0xfaf1fbb8,
0xf9cafa2f,0xf956f966,0xfa6ef9a2,0xfdb1fbf9,0x004fff3e,0xff480072,0xf938fc97,0xf0e8f5b2,
0xe7c6eb41,0xe99ce766,0xfe46f0ab,0x20f10fb0,0x417f315d,0x5dba5105,0x3d8c5bc4,0xe5d70d24,
0xd748d50e,0xf41ee4f7,0xfebffcb3,0xfe0dfe58,0xfea8fe4d,0xfc0bfe28,0xf8ddf9a7,0xf8eef92d,
0xf4aff756,0xf202f26d,0xf550f35a,0xf817f6e7,0xfb0cf9a0,0xfaaffb0d,0xfbf3fb64,0xfa8efb6e,
0xf90df9a7,0xf9a0f91c,0xfc19faa3,0xfec6fd71,0xffa5fff9,0xfc80fdf5,0xf6b7fa9f,0xed20f190,
0xe7cfe9bd,0xf045e948,0x0f04fdac,0x2fd41fe9,0x50304030,0x5c1b5d4d,0x0eef3ed6,0xd527e713,
0xe4dfd6e5,0xfd0af442,0xff0effa2,0xfce6fd90,0xfce3fcfd,0xfa6efbe6,0xf9d6f9c6,0xf70bf924,
0xf246f450,0xf321f1f9,0xf653f4a9,0xfa40f84c,0xfb25fb57,0xfb23faaf,0xfbd6fbe3,0xfa12fb1d,
0xf90ff92b,0xfa8ef98a,0xfdbafc23,0x0014ff32,0xfee4ffeb,0xf96efcbc,0xf03bf519,0xe96dec31,
0xe8e5e792,0xfea6f0b0,0x20760f93,0x413d30dc,0x5f67519c,0x3d885d5a,0xe44a0bda,0xd694d35b,
0xf61be65d,0xfe85fd66,0xfdd7fe26,0xfe2cfe01,0xfb58fd46,0xf926f99b,0xf91cf993,0xf406f6f6,
0xf21df1fe,0xf590f3cf,0xf81ff6b8,0xfb57fa1d,0xfae4fb2d,0xfbbefb5e,0xfa71fb57,0xf915f979,
0xf969f932,0xfc16fa5f,0xff4bfdc9,0x00180046,0xfd13fece,0xf726fac2,0xec37f1fa,0xe6dce86c,
0xef32e7cf,0x0f23fdb1,0x3060201d,0x522140f1,0x5fb86128,0x0c093f07,0xd26ae3a4,0xe578d5ac,
0xfd85f564,0xff1fffa8,0xfce7fda6,0xfc71fcb6,0xfa99fbc6,0xf98ff9ec,0xf6bff864,0xf2dff4c5,
0xf321f268,0xf5c1f424,0xfa12f7f0,0xfb0cfb45,0xfb73fad6,0xfb4bfbbe,0xfa2ffab4,0xf923f98a,
0xfa87f981,0xfdddfc1a,0x0006ff33,0xfe70ffdc,0xfa27fc9f,0xf135f645,0xe7efeb90,0xe94ae760,
0xfe99f08a,0x20dc0ff4,0x421c3146,0x61bf5365,0x3b6e5dde,0xe319099d,0xd6e4d2f7,0xf621e6bc,
0xfe83fd4b,0xfdc0fe2d,0xfdc7fdce,0xfaccfc97,0xf992f9a8,0xf96ef9f6,0xf3c2f705,0xf223f1d2,
0xf59ef3d9,0xf840f6e8,0xfac8f9c4,0xfadffaee,0xfb6afb40,0xfa6dfb00,0xf951f9c7,0xf9edf95f,
0xfc51fb04,0xfec8fd9d,0xffe2ff9c,0xfcd0ff0f,0xf5b5f994,0xecdef129,0xe7afe9a5,0xf0e0e933,
0x0f89fe96,0x30c52081,0x52984171,0x5dc8608c,0x0adc3d16,0xd2a8e342,0xe6f0d628,0xfee6f80c,
0xfd12fe62,0xfd08fcb5,0xfc3afcf6,0xfa61fb59,0xf9a6f9ea,0xf63bf864,0xf23ef3e9,0xf34df220,
0xf65ff4d0,0xfa1cf833,0xfb3bfb36,0xfbb1fb30,0xfb66fbee,0xf9dbfaa8,0xf8f5f91e,0xfa35f93c,
0xfe00fc2c,0x001eff2c,0xfe400008,0xf9b3fbde,0xf15cf667,0xe9f9ecd3,0xe8ffe825,0xfd84efe9,
0x20110ed8,0x41183057,0x61fd52a5,0x3f2760ab,0xe2860b05,0xd5b5d191,0xf798e759,0xfdb0fd92,
0xfd7afd61,0xfdaafdc8,0xfa86fc70,0xf93ff92e,0xf906f9cb,0xf3b9f6b0,0xf1fff1af,0xf5d6f3f5,
0xf822f6fe,0xfaacf9ac,0xfb1bfada,0xfbc8fba9,0xfa3bfb26,0xf936f96b,0xfa1ff99c,0xfc4ffaf8,
0xfef3fdc1,0x0068ffed,0xfca5ff48,0xf584f959,0xeca4f125,0xe7d4e951,0xf05fe963,0x0e1efd5a,
0x30101f56,0x54584177,0x61d564a7,0x089e3dd8,0xd0a1e06a,0xe7ecd5cc,0xfe7ef89d,0xfda2fe18,
0xfd28fd79,0xfbfafcba,0xf9f6fad4,0xf9f3fa0d,0xf63bf88c,0xf1cdf39c,0xf39df1f9,0xf6ebf564,
0xf977f839,0xfaf2fa9b,0xfb23fad2,0xfae7fb5c,0xf9e8fa4a,0xf965f99b,0xfaf8f9af,0xfe74fcda,
0x001eff7d,0xfe8cffff,0xf97dfc3b,0xf0f1f5b2,0xe9feecb8,0xe8ece83b,0xfdacefd4,0x20890f40,
0x41bc30cd,0x61f4535d,0x3ddb5f55,0xe2700ac1,0xd619d1bd,0xf6dfe6cd,0xfe89fded,0xfd4dfddb,
0xfd92fd49,0xfb6cfd0f,0xf937f9c5,0xf8b5f930,0xf3b5f6f1,0xf14df136,0xf56bf32b,0xf8e0f74c,
0xfad3fa3c,0xfa5dfa92,0xfba3faf4,0xfac5fb7c,0xf98ffa0f,0xf992f94b,0xfcb6fae1,0xff20fe42,
0x0004ff98,0xfc81ff28,0xf6adf9ce,0xec57f175,0xe7aae967,0xef7fe886,0x0d5bfcb5,0x2f741ea2,
0x536340c7,0x62af63e1,0x0d43411e,0xd14ce3b5,0xe570d4a5,0xfe66f65a,0xfd31fee7,0xfc38fc29,
0xfcb2fcb6,0xfa18fb94,0xf92ef951,0xf6cff8bf,0xf187f3b3,0xf300f17b,0xf73cf52e,0xfa67f8db,
0xfb15fb5d,0xfaeafab2,0xfaeffb0b,0xf9cafa9d,0xf90af901,0xfb14f9cc,0xfe14fcab,0x0017ff31,
0xfebc0032,0xfa4dfc7c,0xf173f6db,0xe93fec30,0xe924e828,0xfd11efc5,0x1f1a0dde,0x40d62fcb,
0x638e5349,0x402261f3,0xe27a0be3,0xd4dcd0f7,0xf69ee5e2,0xfeaffe0d,0xfd78fddf,0xfd77fd91,
0xfb36fcaa,0xf8c9f992,0xf85ef8ca,0xf425f6d3,0xf18df1bd,0xf561f348,0xf86ff71b,0xfb51f9fb,
0xfad6fb45,0xfb2bfb1d,0xf9e4fa92,0xf94cf96c,0xfa4bf9a1,0xfcfafb6e,0xff23fe29,0x00820054,
0xfc1ffef1,0xf6e7f93e,0xed1ff2ee,0xe766e8e3,0xef76e8d7,0x0d36fc4b,0x2f1e1e9e,0x52294029,
0x624c622d,0x0e864278,0xd190e437,0xe486d46d,0xfe95f5c6,0xfd5cfeeb,0xfe33fd80,0xfc03fdc4,
0xf933fa16,0xfa50f9a6,0xf69ef96c,0xf0dbf31e,0xf329f127,0xf736f566,0xf9e2f882,0xfb82fb36,
0xfb0efb29,0xfad0fb07,0xf99bfa3d,0xf98df975,0xfab0f9df,0xfddbfbfe,0x012dffd8,0xff910140,
0xf9b6fca0,0xf1c4f681,0xe9c3ecde,0xe8ebe812,0xfb03ef16,0x1c1b0b0c,0x3e5e2cc2,0x6362515c,
0x4838666e,0xe52612a9,0xd20ed02c,0xf4f9e29e,0xff0cfe54,0xfcf7fd95,0xfcfafcf8,0xfbaafcb4,
0xf957fa10,0xf8b5f963,0xf3f3f6b1,0xf1aaf1ff,0xf50bf2fd,0xf7ebf673,0xfb72fa04,0xfb38fba8,
0xfb0dfaf8,0xfa44fac8,0xf9defa00,0xf9eef9b6,0xfcbffb10,0xff91fe3b,0x004c0088,0xfcb8fee8,
0xf66df9cd,0xed4af22e,0xe7dde98a,0xeeade8ec,0x0b3bfa9f,0x2d271c94,0x523e3ec9,0x66776478,
0x0fec4660,0xcfd8e35b,0xe2acd27c,0xfe26f3eb,0x016001fd,0xfbcbfe2e,0xfc4afb8e,0xfaa2fc2c,
0xf7e7f8e7,0xf6e9f7a4,0xf1ecf481,0xf2b5f145,0xf735f50d,0xfa0cf8d5,0xfb63fb10,0xfad4fafe,
0xfa72fac6,0xf973f9fa,0xf9e2f973,0xfbe9fa88,0xfea9fd77,0x00d1ffdf,0xfea9008a,0xf9f4fc41,
0xf286f6ef,0xe98eed55,0xe8dee824,0xf998ee03,0x1ac909be,0x3d762baa,0x63875094,0x49c267d8,
0xe66713bf,0xd2b4d17c,0xf3fee242,0xffc6fdf8,0xfc79fe2e,0xfc51fbf9,0xfbe4fc61,0xf9f0faf3,
0xf856f93a,0xf45ff6c0,0xf1b7f222,0xf458f2f2,0xf7e4f5db,0xfbaffa2c,0xfaeefb9a,0xfab3fabb,
0xfa03fa64,0xf9c0f9dc,0xfa27f9b1,0xfd05fb5e,0xffaefe8c,0x001e003f,0xfc5dfed9,0xf742f9fb,
0xed26f287,0xe875e9bb,0xeee0e953,0x0aeafa99,0x2ca21c38,0x507e3de1,0x652561ee,0x128247c0,
0xd129e571,0xe2d5d303,0xfd45f427,0xfeacff03,0xfe7afe92,0xfc5bfdc8,0xf90ffa84,0xf984f8dd,
0xf72cf952,0xf1a2f3ec,0xf2c1f14c,0xf725f52f,0xf9faf877,0xfb0efb25,0xfaf0faaf,0xfa6dfaf3,
0xf932f9cc,0xfa20f94d,0xfbd2fadb,0xfec4fd5c,0x0074ffc7,0xfe81fffe,0xfabbfce8,0xf287f759,
0xe977ed37,0xe763e748,0xf9aced47,0x1b4409db,0x3e592c82,0x648051f6,0x49a767e7,0xe4a312b2,
0xd273d05b,0xf4dce2e3,0xffebfe82,0xfc13fdbe,0xfcd9fc21,0xfbe2fcf6,0xf946fa3a,0xf86ef927,
0xf3f8f66f,0xf198f1ee,0xf524f33f,0xf81af68c,0xfbd0fa15,0xfb8bfc2e,0xfb02fb21,0xfa0cfaa1,
0xf903f986,0xf9a0f8dd,0xfccffb12,0xffa3fe8c,0xfff40012,0xfbb4fe6d,0xf5ebf8cc,0xee09f291,
0xe7cde9cc,0xeff6e914,0x0d2cfce4,0x2ee61e24,0x52554049,0x622761e2,0x0e794308,0xd0e6e37c,
0xe34ed377,0xfeaaf4b2,0x00c80173,0xfcbbfe98,0xfb8ffbf1,0xfa6afb39,0xf8a6f96b,0xf612f7a8,
0xf227f3d3,0xf2b3f1f6,0xf6a4f46d,0xfaf6f8a9,0xfc80fca4,0xfafafba1,0xf9f0fa6e,0xf96ff999,
0xf97af94b,0xfb81fa36,0xfec1fd56,0xfffeff5d,0xfeb70037,0xf948fbdc,0xf2a1f6b5,0xea5aedf2,
0xe832e7f0,0xfadfee4a,0x1cfe0b8b,0x3f4e2e00,0x6230517d,0x45bc6395,0xe64f1239,0xd3ded225,
0xf4dbe391,0xff40fde5,0xfd0bfdf4,0xfd0dfd10,0xfae4fc50,0xf91af97e,0xf818f91b,0xf406f622,
0xf1eef269,0xf4acf2d8,0xf897f6a6,0xfbbefa71,0xfb78fc04,0xfaaefaf8,0xf970fa19,0xf938f927,
0xfa4af996,0xfcf2fb73,0xffadfe68,0xffd9004e,0xfc2afe41,0xf799fa67,0xed9ff2b5,0xe7f4e9dc,
0xeec7e8d7,0x0bddfb47,0x2db11cfa,0x51203ef1,0x644e61fc,0x11fd4681,0xd15de5bf,0xe306d301,
0xfe1cf4b4,0xfdf6ff47,0xfd4ffd69,0xfc72fd24,0xf9c1fb0d,0xf94ef953,0xf68bf881,0xf1c5f3e8,
0xf32ff184,0xf6def54e,0xfa63f870,0xfb9afbbf,0xfa3afaa4,0xfa19fa4a,0xf953f9ab,0xf982f93a,
0xfc05fa76,0xfee6fd9a,0x0073ffec,0xfe53fffc,0xf9c5fbfb,0xf1def6e1,0xea46ecd8,0xe8f1e8b9,
0xfb91eee4,0x1dbf0c5f,0x405b2eb7,0x635052fa,0x435c631a,0xe3730eda,0xd4c9d125,0xf639e54a,
0xfeb9fe2d,0xfcf2fda2,0xfcf5fcbd,0xfb8ffcbb,0xf8cdf9f6,0xf852f88b,0xf40bf6d1,0xf134f195,
0xf4f8f2c8,0xf8c8f701,0xfc20faa6,0xfac1fbde,0xfaa4fa9c,0xf941f9de,0xf933f928,0xfaa6f9bb,
0xfd74fbce,0xfff1ff0b,0xff3f0018,0xfb90fd5b,0xf756fa1c,0xed97f2c3,0xe850e9e2,0xef58e925,
0x0c4dfbe2,0x2e7d1d7f,0x52394029,0x650e62e7,0x0fc745e5,0xd06ce399,0xe409d331,0xfe33f5b4,
0xfd37fec8,0xfd1afc87,0xfce2fdb5,0xf91bfaf5,0xf88ef83d,0xf6c9f88d,0xf185f3d7,0xf34bf170,
0xf70ff555,0xfa01f8aa,0xfbe5fb49,0xfad9fb65,0xfa01fa90,0xf983f989,0xfa50f9c9,0xfc22fb08,
0xff1cfdae,0x004f0007,0xfde6ff9c,0xf944fbb7,0xf254f649,0xea3dedd4,0xe90ce845,0xfaadeedf,
0x1cea0b14,0x402c2e3c,0x6414534e,0x451664c1,0xe3cb0f98,0xd4a1d11f,0xf5a4e56b,0xfcf6fc7e,
0xfdfffcfe,0xfe4cfe9d,0xfa4cfcdc,0xf7d3f82e,0xf880f87d,0xf378f6a8,0xf15ef135,0xf5c8f357,
0xf8abf796,0xfb04f9d5,0xfb3bfb72,0xfaabfb00,0xf917f9de,0xf992f90d,0xfb4bfa55,0xfdc0fc6c,
0xfff9fefc,0xffd80081,0xfb75fddf,0xf730f99d,0xec3cf1f7,0xe8eae9a0,0xef1fe967,0x0d04fc07,
0x2ec11e2c,0x52844043,0x629a625e,0x106843bb,0xd182e575,0xe327d33e,0xfe6cf4de,0xfe29ffcc,
0xfc8bfcc3,0xfc97fce9,0xf961fb1a,0xf84bf894,0xf63cf7a2,0xf1c4f3d3,0xf346f1ca,0xf704f522,
0xfae0f8db,0xfb6afc10,0xfa5dfa58,0xfa38faa6,0xf982f9b7,0xf9bdf95b,0xfc6cfae2,0xff4afe15,
0x001bffc5,0xfdc7ffdc,0xf8e5fae0,0xf3b9f72e,0xea1eee72,0xe908e84e,0xfb15eec2,0x1cbb0b8b,
0x3f992db1,0x62a7520d,0x475e659a,0xe39b104e,0xd37ed0d0,0xf6e4e4ec,0xfd44fdf1,0xfc6cfc10,
0xfdf9fda1,0xfa53fc87,0xf7b3f86d,0xf901f872,0xf425f773,0xf12cf172,0xf5b4f32a,0xf840f73a,
0xfb62f9d6,0xfb7efbd2,0xfa99fb25,0xf948f9d8,0xf97df90f,0xfb71fa6d,0xfe17fcb4,0x0002ff27,
0xffd70095,0xfafdfd7b,0xf6a0f909,0xee3af2f2,0xe8f1ea90,0xee53e937,0x0a29fa1f,0x2c791b47,
0x51243e45,0x66d56344,0x157049f5,0xd134e78d,0xe1b2d1b7,0xfdbdf413,0xfd2afeca,0xfbd1fbf7,
0xfc55fc60,0xf96ffb14,0xf84cf87a,0xf6def809,0xf253f49f,0xf31af1cd,0xf6d1f4e2,0xfabff8ca,
0xfbe2fc31,0xfa50faaf,0xf9d1fa4f,0xf900f924,0xfa70f996,0xfcc8fb58,0xff53fe67,0x0071fffe,
0xfda6ff9e,0xf91dfb50,0xf32ef6ca,0xea80ee7d,0xe876e83b,0xf9f4edc4,0x1d360b2d,0x3fc12e1e,
0x63455287,0x47cf65a7,0xe4d611e6,0xd33dd11e,0xf41fe324,0xfdc4fc9d,0xfd8dfd3d,0xfe15fe1c,
0xfa37fcb4,0xf7b9f839,0xf811f831,0xf431f689,0xf201f23d,0xf4e0f358,0xf8adf676,0xfbdefacc,
0xfafffbc5,0xfa83fa8f,0xf983fa06,0xf9d5f98a,0xfb32fa62,0xfe38fc72,0x001dff91,0xff22001c,
0xfc20fda1,0xf72cf9f3,0xeedaf387,0xe7f0eacd,0xece3e769,0x08f1f8f1,0x2bc01a61,0x51483de2,
0x68b1637a,0x17d34db0,0xd057e7ac,0xe0cbd086,0xfe76f417,0xfceaff2a,0xfbc1fbb0,0xfc35fc72,
0xf920fa97,0xf8aaf8ba,0xf6c9f81e,0xf233f479,0xf2c2f1a5,0xf6d2f4a0,0xfad0f8d6,0xfc0ffc5a,
0xfa98fafb,0xf98bfa2b,0xf931f938,0xfa59f996,0xfc60fb2b,0xff9efe2f,0x0015001e,0xfd1cff2f,
0xf97cfaed,0xf495f7e0,0xebb5efc4,0xe8c6e968,0xf819ecdf,0x1a15085d,0x3dae2b86,0x61a05061,
0x4e106789,0xe7ac1820,0xd0e9d0ea,0xf36be07a,0xff25fdde,0xfd00fd96,0xfd0cfd1d,0xfa3cfc3b,
0xf756f808,0xf8e6f82b,0xf50af800,0xf136f1e2,0xf53df2ef,0xf8abf731,0xfb3bfa06,0xfae2fb70,
0xfa99faa4,0xf94bfa08,0xf9baf931,0xfb59fa7b,0xfe3dfc9b,0xff9dff55,0xff68ffb7,0xfcd7fe47,
0xf6e0fa97,0xeed3f2f5,0xe7f7ea95,0xec7ce7ba,0x0881f859,0x2b7c19e0,0x51603dac,0x6ad564da,
0x16c54ea3,0xcf15e5db,0xe18fd051,0xfe30f4db,0xfcbdfe46,0xfc56fc60,0xfc0ffc6f,0xf996faf2,
0xf8c6f8c7,0xf6faf872,0xf29af4b5,0xf2bff1d9,0xf656f463,0xfa60f887,0xfb72fb7d,0xfa52faa1,
0xfa50fa6e,0xf986f9ed,0xfa0ff999,0xfc2efac4,0xff33fded,0xffc4ffe6,0xfd71fee2,0xf99bfb67,
0xf396f783,0xeb6feedd,0xe868e923,0xf95ced43,0x1b8609f4,0x3e4e2c7c,0x64a451f2,0x4a8b6888,
0xe51b137a,0xd20fd05c,0xf49ae293,0xfd9dfd05,0xfd94fd61,0xfd18fd3f,0xfa60fc6b,0xf7fdf872,
0xf839f859,0xf45af6e8,0xf175f1f3,0xf544f2ec,0xf881f739,0xfb35f9ef,0xfb0afb65,0xfa24fabd,
0xf980f984,0xfa6ff9e6,0xfb65fb10,0xfda1fbfc,0xffa8ff23,0xfeddff98,0xfbb1fd6e,0xf756f9c5,
0xef55f3ce,0xe8b7eb68,0xed45e839,0x097ef93b,0x2b931a9d,0x51183dab,0x675462c8,0x171a4cb6,
0xd11ce737,0xe26bd20a,0xfe30f511,0xfc46fe5a,0xfbf8fb94,0xfc18fc6f,0xf8dbfa8f,0xf853f832,
0xf662f7f5,0xf22ff412,0xf32cf1e6,0xf6ebf504,0xfa90f8d2,0xfb7cfb9a,0xfad5faee,0xfa0bfab8,
0xf93cf96c,0xfa44f979,0xfc34fb23,0xff45fe05,0xff45ff36,0xfe32ff84,0xfa9efbf3,0xf403f898,
0xeae3ee8f,0xe8f2e942,0xf804eccc,0x19ac086f,0x3c8a2aa2,0x63184fee,0x4ed96942,0xe95619a7,
0xd06ad121,0xf3b4e04e,0xfe9efde4,0xfc03fcf2,0xfc5afbf0,0xfa8ffbf4,0xf842f8fc,0xf870f8a2,
0xf431f6a7,0xf17ff231,0xf474f26a,0xf8a1f6c1,0xfb7afa24,0xfb13fbca,0xfaaafabf,0xf986fa14,
0xf9c7f968,0xfbc7fab6,0xfe00fcc9,0xffc9ff1b,0xff8f0000,0xfc19fe62,0xf772f964,0xef0af467,
0xe86bea7e,0xec5ce830,0x0809f7aa,0x29f4193e,0x50883c1a,0x6c24649b,0x199f51df,0xcfdbe772,
0xdfb6cf84,0xfdb9f377,0xfccbfe4c,0xfd4afcc7,0xfb7cfd15,0xf864f986,0xf929f862,0xf75cf912,
0xf1b8f48f,0xf286f0f4,0xf698f4bd,0xfa05f809,0xfbf4fbe7,0xfae3fb26,0xfa10faaf,0xf8e7f942,
0xfa77f961,0xfc9cfb88,0xff73fe3c,0xff85ffa6,0xfe1fff1d,0xfab0fc58,0xf4abf8e3,0xeb6fef35,
0xe8d5e974,0xf5b5ebc4,0x177005df,0x3aaa2877,0x63004e9d,0x55436cc4,0xea2b1df2,0xcee5d06c,
0xf2c7dec6,0xfe60fd7e,0xfbb9fc88,0xfc18fbc3,0xfaa4fbda,0xf89af941,0xf89bf8b1,0xf585f7b0,
0xf154f2bc,0xf3fff1f1,0xf84df671,0xfb22f9ed,0xfa5dfb07,0xfb1efa94,0xfa03fabe,0xf9f6f9ba,
0xfb71fab1,0xfdebfc6e,0xff5dfeed,0xff6cffb6,0xfce3fe54,0xf85ffb13,0xeff0f497,0xe908ebd2,
0xea19e742,0x0557f4f0,0x28451700,0x4ea83a95,0x6d926337,0x1f3d56c2,0xd103eaf9,0xdf00cf1b,
0xfcf6f31d,0xfc33fd39,0xfc85fc65,0xfb42fc35,0xf8b2f9d7,0xf8b5f852,0xf786f8c8,0xf286f507,
0xf2abf1b5,0xf671f475,0xf9c7f833,0xfb6afb07,0xfad3fb1e,0xf9a9fa77,0xf93af90f,0xfae1f9e5,
0xfccefbd9,0xff31fe2d,0xfeefff19,0xfe16ff09,0xfb53fc75,0xf51af93d,0xeaf4efda,0xe85fe843,
0xf5e4ec2d,0x1630051d,0x39d3276e,0x62444d7e,0x577f6d97,0xec7620c1,0xceacd166,0xf179dd99,
0xfeb6fd20,0xfc69fd21,0xfb97fbea,0xf9b7fafd,0xf894f8c1,0xf87df8da,0xf4b4f6fe,0xf17af24c,
0xf4cef2d9,0xf7a8f62a,0xfb99f9ce,0xfb8afc2c,0xfa26fa8a,0xfa11fa30,0xfa03f9e7,0xfb6dfa8f,
0xfe04fc9d,0xff86ff06,0xffb0ffd3,0xfcf1fe9f,0xf8ecfb3d,0xef63f4bb,0xe848eb14,0xea87e758,
0x0425f440,0x278e162b,0x4d12396e,0x6e5e6230,0x239459dc,0xd10dedd1,0xdcb0cd7c,0xfdaef1b1,
0xfcb2fe85,0xfc5afc68,0xfb8dfc48,0xf7b2f989,0xf8b6f787,0xf7c7f947,0xf18ff490,0xf26cf0dc,
0xf6d6f4c4,0xfa00f876,0xfc05fb6b,0xfae6fb85,0xf9e5fa94,0xf90cf925,0xfafaf9ca,0xfc61fbb5,
0xfeebfdb6,0xff85ff6f,0xfe6dff47,0xfbd3fd53,0xf44df8c6,0xec02ef9b,0xe75be934,0xf557eabd,
0x159d0480,0x37d92692,0x61234bb3,0x5a266d4d,0xefc72568,0xce47d2a5,0xf057dc3b,0xfe4efc78,
0xfccbfd0a,0xfbcdfca0,0xf98dfac7,0xf817f84e,0xf8cff8cd,0xf511f769,0xf12ff282,0xf3daf1e3,
0xf855f623,0xfba3fa53,0xfb69fbd2,0xfa77faf2,0xf974f9e5,0xfa32f995,0xfbc4fb05,0xfe40fcb0,
0xff62ff5b,0xff6dff56,0xfde6fefd,0xf93ffc31,0xef30f491,0xe8b4eb2b,0xe8eee6da,0x02d0f2e8,
0x260e1490,0x4bf63806,0x705261f8,0x27ea5e5b,0xd0c8ef83,0xdb94cc80,0xfcfcf0d3,0xfc27fdfe,
0xfc28fbd8,0xfb96fc36,0xf85dfa02,0xf90af824,0xf7b7f925,0xf1faf507,0xf222f0b1,0xf6a5f4ad,
0xf9f4f839,0xfc15fb74,0xfb0ffbb5,0xf9d9fa99,0xf912f914,0xfab8f9b7,0xfc4cfb9f,0xfea2fd6e,
0xff2bff08,0xfefaff5e,0xfb5ffd8d,0xf649f93c,0xea6ef0bc,0xe6ebe6ec,0xf48ceacc,0x15950409,
0x38b526bd,0x61ec4c80,0x5bdf6f4d,0xeeb2252c,0xcd52d18f,0xf059dbc2,0xfe06fc93,0xfc6dfc78,
0xfc74fcb5,0xfa1cfb99,0xf86bf8c1,0xf8cbf8d6,0xf4ecf780,0xf0b2f20d,0xf416f1b1,0xf808f65b,
0xfb5bf9a6,0xfbf4fc58,0xfa67faf7,0xf962f9ef,0xfa52f97f,0xfbaefb35,0xfd5afc2f,0xff36fe91,
0xff6cff72,0xfdd5ff15,0xf994fbd0,0xf017f5ce,0xe7faeb06,0xe8c2e667,0x0333f2da,0x266c150e,
0x4c6d3870,0x6fea6252,0x27745d4d,0xd181f003,0xdb78cce1,0xfc9af051,0xfc78fe1d,0xfb9cfbcf,
0xfbcffbdd,0xf8d4fa66,0xf890f852,0xf7a7f8a7,0xf241f524,0xf20af111,0xf672f425,0xfa27f861,
0xfbfdfba5,0xfad5fb62,0xf9d4fa80,0xf942f928,0xfb0efa06,0xfc5ffbd8,0xfe16fd43,0xff05fe6f,
0xfec4ff88,0xfb71fd04,0xf5e5f9b1,0xeb07eff0,0xe758e88b,0xf39be9e6,0x15a803a2,0x389926df,
0x60b54bdc,0x5c566e06,0xf1e22840,0xccdfd2cf,0xef7dda85,0xfe08fc71,0xfca4fc74,0xfc57fcf4,
0xf970fb1c,0xf854f853,0xf897f8bd,0xf554f77a,0xf085f25f,0xf3eff15e,0xf896f6a2,0xfba8fa09,
0xfb77fc77,0xf9fffa2c,0xf9defa16,0xfa17f9c6,0xfbf7fb0c,0xfd66fc79,0xff09fe79,0xffeaff7f,
0xfdc8ff94,0xf8fbfb35,0xf08af5c7,0xe828eb81,0xe9d0e6ce,0x01dbf324,0x24771306,0x49c0367e,
0x6eba5ed1,0x2df06194,0xd2ddf3dd,0xda68ccde,0xfca4ef8d,0xfbbbfdf7,0xfb76fb28,0xfbc2fbdb,
0xf8e1fa97,0xf76ff786,0xf828f844,0xf2f8f619,0xf18af0fe,0xf66ef3db,0xfa07f861,0xfbf2fb87,
0xfa95fb4e,0xf9a4fa13,0xf9a9f972,0xfafcfa2d,0xfc2bfbb0,0xfe6dfd4d,0xffc5fef3,0xff560037,
0xfc8efdd9,0xf60cfa82,0xea48efc0,0xe7efe7e6,0xf282ea6b,0x11ae009d,0x3539234f,0x5d6f482a,
0x64e76ed2,0xf793338a,0xca23d2b6,0xed8bd71f,0xfee8fc78,0xfc23fce8,0xfc20fc17,0xfa3efbcb,
0xf796f855,0xf8d9f83c,0xf629f83f,0xf0bbf2ea,0xf3b2f151,0xf828f63f,0xfb05f9a6,0xfb34fbad,
0xfa3bfa81,0xf9aef9fc,0xfa05f998,0xfc1bfb04,0xfe30fd27,0xff2efed9,0xffcbff85,0xfe45ff69,
0xfa59fcff,0xef6cf503,0xe963ebfc,0xe7d6e6d0,0xff70f052,0x22391108,0x474d33bd,0x70385dd0,
0x350f6694,0xd40ff90f,0xd731cb08,0xfc8bed41,0xfbd7feb1,0xfb7cfaeb,0xfb89fbed,0xf87afa25,
0xf82df79e,0xf8c1f933,0xf305f64a,0xf182f0fb,0xf615f3d7,0xf97cf7a9,0xfc1dfb6b,0xfaa0fb7b,
0xf9d5fa15,0xf9daf9c0,0xfb48fa51,0xfc53fc17,0xfe43fceb,0xffc8ff5f,0x00000022,0xfc54fe82,
0xf68efa17,0xea2af04a,0xe691e773,0xf119e888,0x10c3ffa1,0x334721ef,0x5bfe463c,0x68f46f6f,
0xfb6a38e4,0xc965d42f,0xebc4d50a,0xfee3fc0b,0xfbeafc7e,0xfc84fc53,0xfa7dfc32,0xf76cf838,
0xf972f870,0xf5d1f89a,0xf0abf27b,0xf3b8f17b,0xf7cdf5e8,0xfb31f978,0xfb62fc20,0xfa1cfa63,
0xf9c4f9f3,0xfa67f9e3,0xfbf8fb30,0xfd56fc8b,0xff5afe7c,0xffd2ffbd,0xfe58ff5e,0xfac0fcee,
0xf179f704,0xe877ebf6,0xe732e646,0xfd94ef2d,0x20370ed3,0x453531fa,0x6dd65a54,0x3d3e6a0c,
0xd7890078,0xd48cca96,0xfb22ea71,0xfc6ffed4,0xfb18fb1c,0xfbacfb81,0xf8c9fa97,0xf7e6f7b2,
0xf8bcf8ae,0xf334f6cc,0xf131f0c4,0xf638f381,0xf9a7f841,0xfbc9fb0a,0xfac2fb6b,0xfa3ffa76,
0xf95cf9ad,0xfb23fa04,0xfc2afbd5,0xfe2afd06,0xffb3fee0,0x00020069,0xfd01fedb,0xf664fa12,
0xeb40f11e,0xe720e802,0xef7ee875,0x0e75fd35,0x31201fec,0x58654398,0x6c456d17,0x01be4052,
0xcaafd803,0xe987d3bf,0xfec3fac7,0xfb75fc42,0xfc4bfc47,0xf9adfb38,0xf826f87a,0xf93af8be,
0xf5f2f850,0xf160f310,0xf428f213,0xf77ef60f,0xfac8f8dd,0xfca5fca7,0xf923fac2,0xf95ff8ec,
0xfa91f9e4,0xfc1cfb62,0xfd47fc99,0xfe65fe19,0x0019feda,0xff66009b,0xfb3afd79,0xf1ecf79d,
0xe869ebe4,0xe7d8e74f,0xf9faed6b,0x1c970abe,0x417a2eae,0x6be9561b,0x49316fb8,0xdb3f0a1e,
0xd0b7c9e7,0xf9d0e65c,0xfce0ff90,0xfb11fb01,0xfb32fb45,0xf90efa79,0xf7f4f7e5,0xf8c1f89c,
0xf49bf78b,0xf0fef1a0,0xf5b7f2f7,0xf946f7c0,0xfbebfaec,0xf9f7fb30,0xfa0bf9c3,0xfa8dfa4c,
0xfb16fab9,0xfbf3fb92,0xfe13fcc9,0xfec9feb0,0x0099ff9f,0xfde60034,0xf703fa7a,0xecb3f26e,
0xe71fe8c2,0xed1ce76c,0x0a83f9d8,0x2d231be0,0x549b3f7b,0x709b6b25,0x0db44c8b,0xca46dd13,
0xe53cd008,0xff69f915,0xfad5fcea,0xfb55fae2,0xfa93fb5b,0xf80df92f,0xf8c1f810,0xf717f8ae,
0xf1e1f44e,0xf2ecf170,0xf7a2f54e,0xfaa3f953,0xfb52fb93,0xf9dafa4b,0xf9dff9ea,0xfa46f9e6,
0xfbe2fafd,0xfccdfc7e,0xff03fdad,0x0085ffd9,0xffc400dd,0xfaf6fda7,0xf2c9f782,0xe862ecba,
0xe79ee734,0xf7f0ec30,0x1a040879,0x3dfa2b82,0x6ba15355,0x505f73d2,0xde1b102b,0xcef5c9ea,
0xf8f6e485,0xfc87ff4f,0xfb23facb,0xfb3afb57,0xf92afa6e,0xf805f831,0xf8b1f893,0xf49af752,
0xf143f1ea,0xf556f2f4,0xf91df76d,0xfb9ffa63,0xfb04fc0a,0xfa0ffa1a,0xfa61fa35,0xfb43faa6,
0xfc14fbf9,0xfcd7fc13,0xff24fe16,0x0079fff0,0xfe0ffff8,0xf841fb7e,0xed15f316,0xe66ce8e0,
0xec58e672,0x086af885,0x2ac91997,0x51c53d04,0x72a768fe,0x14855316,0xcbc9e172,0xe251cecf,
0xfee9f69d,0xfb90fda6,0xfb2dfb3d,0xf9defac7,0xf7e4f88d,0xf8e7f85e,0xf71af894,0xf1c1f459,
0xf366f162,0xf7f4f629,0xf9e2f8c2,0xfb97fb38,0xfa72fb19,0xf9dbf9fd,0xfa94fa10,0xfc01fb49,
0xfc4afc3d,0xfea4fd4c,0x005aff7f,0x002800e7,0xfb3afe05,0xf3dcf843,0xe7deed36,0xe723e675,
0xf661eb51,0x17a10671,0x3b86290c,0x66f24fae,0x595a7416,0xe49a1b59,0xcc4dcb25,0xf72fe094,
0xfcff0002,0xfa3bf9e5,0xfb65fb35,0xf8e3fa62,0xf855f80f,0xf88cf8f2,0xf4fef720,0xf150f278,
0xf55bf2bc,0xf90bf781,0xfb65fa43,0xfa86fb9d,0xfa38f9e9,0xfaa5fa6f,0xfb7afb04,0xfbe8fbd6,
0xfd07fc2b,0xff18fe21,0x007afff7,0xfe19ffec,0xf8aafb79,0xeeaaf4bf,0xe754e970,0xea60e6ea,
0x04adf4e4,0x2725160a,0x4d97392e,0x743e652a,0x20975d73,0xcc34e7b9,0xdef5cb97,0xfffdf626,
0xf99bfd48,0xfadef98c,0xfaf1fb97,0xf806f950,0xf835f7ce,0xf816f891,0xf2dcf5dd,0xf23ff144,
0xf7e7f526,0xf98df920,0xfaf0fa58,0xfa3bfaa0,0xfa7bfa45,0xfabbfaa5,0xfc30fb41,0xfc6cfc8c,
0xfdfcfced,0x0032ff02,0x01000134,0xfbc4ff06,0xf436f85d,0xe9ccee86,0xe6bce77a,0xf326e9b1,
0x13b80237,0x370b2527,0x62e64b04,0x64eb7587,0xeb002952,0xc875cafe,0xf558db5a,0xfde901c6,
0xf829f846,0xfc3ffa8a,0xfa12fbf6,0xf7def844,0xf975f8c8,0xf5d3f885,0xf062f250,0xf4f1f1c1,
0xf91ff7a8,0xfac0f9e0,0xfa9dfb21,0xfad6fa67,0xfa87faf7,0xfacbfa42,0xfc5afbcc,0xfc92fc43,
0xfeeefdae,0x01230035,0xff8a00fc,0xf924fcd0,0xefd4f4cb,0xe861eb4b,0xe92de717,0xfff1f1a9,
0x2180109d,0x472b3335,0x75e76002,0x30d369ca,0xceb0f1e7,0xd8e4c89d,0xff36f171,0xfa36fe54,
0xfa55f99d,0xfaa2faa8,0xf908fa04,0xf86af85b,0xf882f8e2,0xf32ef663,0xf1f1f12d,0xf696f45b,
0xf91bf7f3,0xfb6dfa97,0xfa28fafd,0xfa80f9fb,0xfb11fae3,0xfc3ffb9b,0xfbf9fc43,0xfdf9fc8c,
0x000dff32,0x00bb00c7,0xfcdfff66,0xf5a9f97e,0xea98f05d,0xe6e0e79d,0xf047e86e,0x0fe9febc,
0x33432158,0x5db94682,0x6d177449,0xf4fe36dd,0xc705ce78,0xf0b8d702,0xfe94ffc1,0xf877f956,
0xfb5ffa1a,0xfa04fb5f,0xf7bdf83a,0xf92ef896,0xf741f8f5,0xf163f3f5,0xf47cf1b7,0xf8b0f742,
0xfa2af949,0xfab3fb08,0xfaa9fa33,0xfb6afb4c,0xfa9bfae4,0xfbe5fb53,0xfc21fbcc,0xfec7fd50,
0x01820037,0xffbf019d,0xf975fcab,0xf070f5ed,0xe778ea47,0xe8fce751,0xfd8bf020,0x20530e9c,
0x44e231dc,0x73ee5c43,0x39146e74,0xd120f7b7,0xd666c83c,0xfef9ef41,0xf980fe9f,0xfa74f8ab,
0xfb99fbee,0xf807f9aa,0xf897f7a9,0xf93cf9b0,0xf36af6da,0xf167f0ee,0xf635f3f5,0xf89df777,
0xfb9afa38,0xfb00fbb0,0xfb4dfaf6,0xfb14fb35,0xfc05fb63,0xfbc8fc36,0xfd17fc03,0xffbbfe45,
0x01660121,0xfd240006,0xf5dcf977,0xea85f0c3,0xe7d2e7da,0xef7be8a2,0x0e1ffd9f,0x2f701e4d,
0x59b142ce,0x704d7158,0xfd433fc2,0xc829d357,0xed11d492,0xfee2fdd6,0xf8bffa21,0xfb84fa20,
0xf9f8fb86,0xf759f829,0xf937f7f7,0xf753f949,0xf18ef428,0xf3c4f17a,0xf86af673,0xf9c8f937,
0xfb0ffad3,0xfb5ffaee,0xfaf4fb75,0xfaa2fa83,0xfc18fb6c,0xfc2afbf6,0xfe85fd54,0x0149ffdb,
0xff4c013c,0xf9f7fccd,0xf07af5fa,0xe86ceb19,0xe938e7e7,0xfd6befe3,0x1eca0e2a,0x42162fa9,
0x707158bf,0x40276f3b,0xd33dfe65,0xd455c7c7,0xfe72ed24,0xfaaaff61,0xfa8ff961,0xfb84fbbb,
0xf898fa21,0xf847f7c3,0xf893f8f6,0xf3b2f6d9,0xf0eef0fd,0xf626f34d,0xf8d8f7dd,0xfb50fa23,
0xfb0bfb7c,0xfb60fb05,0xfabafb31,0xfc01fb1b,0xfbbcfc33,0xfd92fbf5,0x0088ff78,0x012f010f,
0xfd8b0016,0xf700fa5d,0xec8ef296,0xe591e76e,0xed50e6db,0x0b05fa62,0x2c6c1b93,0x56aa3f82,
0x783171d1,0x03cd4b39,0xc558d367,0xeb4fd10d,0xff9bfec8,0xf75ff8f3,0xfc09f9fb,0xfa4ffbfa,
0xf78ef84c,0xfa0af8af,0xf7a7f9d2,0xf132f429,0xf33ef0d5,0xf827f65f,0xf979f8d2,0xfac9fa46,
0xfb7ffb14,0xfaf8fb8c,0xfa68fa59,0xfc50fb65,0xfbe0fc32,0xfea4fcc6,0x00e9000c,0xff2900f9,
0xfa0ffcb9,0xf19bf629,0xe826ec55,0xe92ae766,0xfc43ef50,0x1d880ce8,0x410a2e92,0x6d765636,
0x45647015,0xd732048a,0xd259c860,0xfc1cea12,0xfb26feb8,0xfb76fa82,0xfaf3fbac,0xf85bf97a,
0xf8dff852,0xf8c0f91f,0xf418f728,0xf150f187,0xf614f370,0xf891f78f,0xfb00f9d0,0xfb01fb81,
0xfac6fa9b,0xfa70fabd,0xfb9efaae,0xfbeffc22,0xfd5bfc2f,0x00a5fef8,0x012f01ba,0xfd09ff60,
0xf692fa10,0xeb33f16b,0xe78fe813,0xee6be827,0x0c1cfbc2,0x2d481c95,0x544d3f16,0x71fa6cb9,
0x09ba4a43,0xc926da3a,0xe86dd164,0xff30fb7b,0xf8e1fada,0xfad3f9ac,0xfa5efb5b,0xf7aff893,
0xf8cdf823,0xf75df8bb,0xf195f45c,0xf3bdf171,0xf86df6a1,0xf98df8e3,0xfaacfa93,0xfb6bfaae,
0xfb62fbbe,0xfa5cfacf,0xfb11fa8e,0xfbdafb53,0xfefefd2d,0x0129009d,0x001200da,0xfa84fddd,
0xf1a2f6a0,0xe8cfec9c,0xe780e69c,0xfb2eee10,0x1c6f0bc8,0x3ea32cff,0x69875294,0x4e7871d3,
0xdabc0d06,0xd084c89e,0xfb5de7e0,0xfb4cff2b,0xfa9ff9cb,0xfad1fb38,0xf866f988,0xf871f820,
0xf86bf8b9,0xf40df6ee,0xf15af187,0xf640f359,0xf8d6f83b,0xfa1cf986,0xfa99fa31,0xfb96fb49,
0xfa9bfb30,0xfb8cfab6,0xfbf9fc31,0xfd92fc11,0x00daff73,0x0118019d,0xfdeeffbd,0xf686faab,
0xec7bf1f2,0xe608e81c,0xecc2e692,0x0ac0f9e8,0x2c431b8b,0x53873ea4,0x746e6b87,0x0da2500f,
0xc8b6db69,0xe6d4cfa4,0xff37fae7,0xf8eefaf7,0xfb78fa07,0xfa96fbda,0xf7a1f87d,0xf942f888,
0xf732f8cd,0xf124f403,0xf357f132,0xf76cf5ac,0xf957f85d,0xfb8dfabd,0xfb6afb94,0xfaccfb26,
0xfa69fa81,0xfb86fae3,0xfbc9fb82,0xff16fd51,0x0117004f,0x00730139,0xfb0ffe5c,0xf207f71a,
0xe843ec78,0xe769e63b,0xfa6aedf7,0x1b260a6b,0x3dff2c0f,0x69b95204,0x516873ae,0xdb780f81,
0xcf17c7df,0xfa91e63c,0xfb6aff5e,0xfa69f983,0xfbd6fb9c,0xf885fa53,0xf8cdf82e,0xf8c4f917,
0xf43bf753,0xf0fff16d,0xf54ff2ae,0xf86df766,0xfa30f94b,0xfab3fa95,0xfc15fb52,0xfa9ffbc5,
0xfa6df9f1,0xfc11fb8a,0xfd80fc4a,0x012fff7e,0x01c60214,0xfcbdffcc,0xf74cf9d9,0xebcdf2d1,
0xe613e6e1,0xedc4e787,0x0bb5fb0f,0x2c901bfe,0x51e63e8e,0x711b6801,0x111c502e,0xcab6df0f,
0xe524cf98,0xfe7ef944,0xf970fad3,0xfc58fb10,0xf9f2fbf2,0xf735f7d7,0xf977f854,0xf6c1f8e6,
0xf1a8f3dc,0xf37af19d,0xf76bf5ca,0xf8eaf812,0xfb96fa9c,0xfb7bfb7d,0xfac2fb5f,0xfa53fa38,
0xfb97fafa,0xfbedfbb8,0xff50fd51,0x01ad00c0,0x000801a8,0xfa3ffd56,0xf293f71e,0xe798ec1c,
0xe74de679,0xfa48ed23,0x1b6b0afa,0x3db32be2,0x68e851ce,0x5380730a,0xdd9412f7,0xce74c89b,
0xfaeee53b,0xfa59fff9,0xf888f72d,0xfcfbfb6d,0xf8dffb9c,0xf778f71f,0xf92cf8d8,0xf493f7ab,
0xf02cf13f,0xf5c3f257,0xf896f7fd,0xf9fdf8e0,0xfb48faf4,0xfc75fc06,0xfa8afbb2,0xfa08f9bc,
0xfbecfb30,0xfe30fca1,0x00fcfff1,0x01320161,0xfd24ffb9,0xf72efa73,0xed45f28d,0xe67ee8b0,
0xedfde7f5,0x096bf99d,0x2a8419fc,0x4ff83c41,0x725466f5,0x164254e3,0xca73e10f,0xe36ace78,
0xff5cf849,0xf9bffc5d,0xfaa8f9ed,0xfa54faef,0xf7e4f900,0xf7e2f79e,0xf734f7eb,0xf226f513,
0xf2faf128,0xf773f59f,0xf979f868,0xfb2dfabf,0xfabdfac8,0xfb6afb40,0xfa2afad4,0xfb64fa68,
0xfbe2fbd0,0xfff2fd5d,0x027101c3,0xffc501ef,0xfa64fcc5,0xf3ccf840,0xe849ed01,0xe75ae705,
0xf731ebbe,0x187d0791,0x3a7828cf,0x66274e40,0x5be17587,0xe2c01bd2,0xcbffc95e,0xf993e238,
0xfab5003f,0xf89ef722,0xfc85fb4e,0xf8bbfb56,0xf767f701,0xf942f8b8,0xf4bef800,0xf0edf18a,
0xf5cbf2fd,0xf7adf759,0xf9c7f855,0xfb06fae9,0xfbf5fb35,0xfa7efbcb,0xf9e2f98a,0xfc27fb2d,
0xfdcbfcab,0x0137ff8e,0x01ce021f,0xfdac0039,0xf797fabd,0xedd2f355,0xe69ce90a,0xebb3e6d8,
0x0766f748,0x281a17e4,0x4e8f3a05,0x75ed66fb,0x1b6f5bc0,0xc947e24a,0xe193cc1c,0xff7ef81f,
0xf891fb81,0xfb86f9a6,0xfaa0fbe0,0xf762f8cd,0xf8d1f796,0xf80cf947,0xf1b5f4d2,0xf308f137,
0xf707f564,0xf901f817,0xfad2f9f4,0xfb48fb1a,0xfb4ffb9c,0xf981fa3f,0xfc0afa59,0xfc3dfc8e,
0xff67fd1d,0x025b017f,0x003901ef,0xfa97fd8f,0xf26bf734,0xe8daecad,0xe6fde762,0xf760eb5c,
0x17a3075f,0x39ee283d,0x665f4da3,0x5d2d7679,0xe2cc1d04,0xcb3ec8a3,0xf88fe115,0xfb3d0027,
0xf993f80e,0xfc90fbbf,0xf8f6fb60,0xf783f74e,0xf8d2f86f,0xf530f80d,0xf09ef1b3,0xf56cf27a,
0xf807f754,0xf9def8c7,0xfb07fa99,0xfc82fbdb,0xfa3cfbd4,0xfa04f942,0xfcb2fbcc,0xfd2bfc9a,
0x00fefef7,0x018601ff,0xfd7dffe5,0xf770fa8d,0xed82f335,0xe823e994,0xebfde7e2,0x060cf6cd,
0x261f161c,0x4bb137e0,0x75306397,0x22cd605f,0xca72e763,0xdde9ca4f,0x01a6f5e5,0xf941ff28,
0xf8e9f73f,0xfbacfb5d,0xf719f98b,0xf79af66a,0xf83bf8b3,0xf2eaf60e,0xf256f120,0xf77bf52d,
0xf870f84b,0xfa7bf957,0xfbddfb30,0xfbeefc42,0xfa0dfaf2,0xfba1fa5d,0xfc62fc53,0xff8cfd5d,
0x021c0185,0x00230177,0xfa5afdc6,0xf387f6fe,0xeb29ef21,0xe6bfe868,0xf412e97e,0x146b041a,
0x357323ff,0x6120493b,0x669275a9,0xebbe2a85,0xc8d0cb66,0xf504dbe8,0xfc950041,0xf923f847,
0xfca0fb7e,0xf8ddfb8c,0xf70cf6dc,0xf932f877,0xf5f0f86c,0xf12ef2c0,0xf4b2f229,0xf7eff6f7,
0xf9abf88e,0xfb1ffa99,0xfc01fbbf,0xfa35fb50,0xfa20f999,0xfc6afb76,0xfdbcfcd6,0x0186ffa1,
0x012d01f8,0xfea30012,0xf7c8fc14,0xee60f2d8,0xe77cea45,0xeac9e72f,0x02a8f438,0x232b12df,
0x485c34c3,0x7731611f,0x2ba36804,0xccdfed9b,0xdb54c938,0xff2ef35c,0xf899fcfb,0xfa6cf868,
0xfb6bfc03,0xf733f908,0xf802f71b,0xf859f8b1,0xf390f67f,0xf288f1ae,0xf6b7f4e0,0xf857f7b4,
0xfaa3f953,0xfbadfb4e,0xfb8bfc24,0xf955fa15,0xfbb6fa14,0xfcd6fca4,0xffdafdd8,0x026101b1,
0xffa201a5,0xfaa4fd18,0xf30af755,0xeb57eebf,0xe8a0e991,0xf2bfea46,0x11c3015e,0x33e82217,
0x5fa547c3,0x694c7555,0xf0702f96,0xc8abcde3,0xf1f4d97e,0xfd7bff29,0xf86ff8d3,0xfc5dfa65,
0xf9d1fc55,0xf747f77d,0xf8c3f838,0xf627f83d,0xf189f32c,0xf48ef262,0xf7c0f66a,0xf9b4f8e6,
0xfb0afa64,0xfc0dfb98,0xfaa5fbb6,0xfa45f9f4,0xfc1efb55,0xfd1efc4b,0x0111ff1b,0x019d01f4,
0xfd65fff7,0xf90efb2c,0xef41f519,0xe883ea79,0xea20e826,0x010bf242,0x217111ab,0x463c32f5,
0x73565ced,0x3213698c,0xd18bf49e,0xd953ca6c,0xfdcff052,0xf91cfd41,0xfadaf908,0xfb5afbf1,
0xf736f918,0xf81ff723,0xf837f8c0,0xf3a7f65e,0xf210f1a0,0xf6f5f4a0,0xf80df7c6,0xfa5df8fb,
0xfbd5fb50,0xfb7dfc1c,0xf995fa3f,0xfbe9fa3a,0xfd0cfd10,0xfec9fd4c,0x01eb00dc,0xff92013a,
0xfae8fd70,0xf440f7f6,0xeb04efc2,0xe7d3e821,0xf27eea1a,0x109800da,0x327b209e,0x5d6345c9,
0x6c847515,0xf49134ce,0xc7cecf35,0xf042d75c,0xffd3001d,0xf6edf95e,0xfbfaf8d3,0xfa98fcd8,
0xf6fcf7f9,0xf908f7c6,0xf69bf8f8,0xf12af328,0xf3f9f19e,0xf7eff69c,0xf932f854,0xfc0ffaeb,
0xfbaffbf9,0xfa52fb37,0xfa16f9a9,0xfc21fb58,0xfd82fc7d,0x009bff1d,0x01ba01b4,0xfde40037,
0xf87ffb30,0xef85f519,0xe8d4eaa7,0xe9f6e80b,0x009ef283,0x20011044,0x4493315c,0x73ce5c50,
0x34ad6b35,0xd2a3f6c3,0xd81cca2b,0xfdd3efb1,0xf8c3fd04,0xfabaf8c2,0xfbc9fc18,0xf7eef9d9,
0xf887f7bb,0xf7acf881,0xf3caf62f,0xf1bdf1c5,0xf627f39b,0xf87ef7d7,0xfa9ef967,0xfbfffb7b,
0xfb5bfc06,0xf9fdfa6c,0xfbd3fa7e,0xfc80fcbd,0xfedafccf,0x02750140,0x0060021f,0xfa8bfd83,
0xf450f7f3,0xeba9ef84,0xe87de97c,0xf0ffe9e8,0x0e0efe38,0x2f791e29,0x5943424c,0x70bb72b4,
0xfdd63e9c,0xc84ed448,0xed17d4e7,0xfd3ffcf5,0xf7dff8a9,0xfc4ef9f4,0xfa21fc91,0xf6fcf779,
0xf886f7ec,0xf73cf89a,0xf10af3d5,0xf3e5f148,0xf774f681,0xf925f7d4,0xfbb5fac0,0xfbc3fbeb,
0xfa57fb44,0xfa43f9c2,0xfc9efb9c,0xfd7dfcd9,0x00c4ff02,0x01ae01f4,0xfe31002a,0xf95bfbfe,
0xf115f5bc,0xe921ec6a,0xe8fbe7a2,0xfcf2eff2,0x1c740cb7,0x40452d62,0x70b056b8,0x442972d3,
0xd5af021d,0xd33dc7e1,0xfcf0eb66,0xf943fe73,0xf9a9f7bb,0xfbf7fbbd,0xf843fa47,0xf7c3f754,
0xf908f8c5,0xf408f756,0xf150f14c,0xf665f3ce,0xf7c6f79f,0xf9cef836,0xfbe0fb4c,0xfbc2fc32,
0xf984fa64,0xfb97fa04,0xfd6efcec,0xff56fe14,0x01af00bd,0x002201a8,0xfba9fda5,0xf532f969,
0xebfbf01e,0xe889e99b,0xef5fe923,0x0c59fc85,0x2cbf1beb,0x56963fb2,0x740d7122,0x039245e3,
0xc80bd6ae,0xe959d222,0x000cfbe0,0xf812fb9b,0xfa42f819,0xfb3bfbea,0xf759f91a,0xf79cf6e3,
0xf783f882,0xf1a2f43e,0xf3e6f1c2,0xf754f62e,0xf99df824,0xfbbdfb27,0xfb91fb96,0xfa5bfb3b,
0xfa08f9c5,0xfcd5fb6a,0xfd81fd2d,0x0046febd,0x0193016a,0xfe95006b,0xf8f9fc28,0xf201f5fd,
0xe946ec9a,0xe915e88c,0xf986edc9,0x1a5c09cf,0x3dcd2b42,0x6e6c5392,0x4e89770d,0xd92f0abf,
0xd006c74b,0xfca2e8a2,0xf7b8fe92,0xf90cf5d1,0xfd27fc91,0xf7acfa82,0xf806f6d0,0xf97df9a9,
0xf487f772,0xf126f1d2,0xf5a6f2ec,0xf881f7c1,0xfa35f8f4,0xfbc4fb5f,0xfbd1fbf7,0xf999fab9,
0xfb4df9bc,0xfe00fd36,0xfe80fdf2,0x01510004,0xffe60149,0xfb60fdb5,0xf5e4f8e7,0xecb3f1a2,
0xe8cfe9e8,0xee47e8d5,0x09edfa7b,0x2a9719c6,0x53053d33,0x75da6d42,0x0d734fc8,0xc77eda93,
0xe78ecf86,0xff1efbf2,0xf6a8f90e,0xfc42f90e,0xfa43fce2,0xf6b5f763,0xf8fff7c8,0xf7e4f93e,
0xf1e4f4e1,0xf32cf13e,0xf7aaf5e5,0xf8d3f82f,0xfbd8fa73,0xfbdbfc25,0xf9effb12,0xf9c7f956,
0xfcedfb35,0xfdabfdae,0x001efe61,0x01360184,0xfdc4ff85,0xf9d2fc1d,0xf31ef6de,0xe9fbee0f,
0xe875e86b,0xf978ed56,0x18c10924,0x3b612902,0x69725055,0x5531758e,0xdd621327,0xce57c82e,
0xfa88e586,0xf940feb6,0xf927f6fa,0xfd39fc37,0xf824fb1f,0xf783f6d4,0xf970f8e5,0xf4e7f80d,
0xf085f199,0xf553f26b,0xf88df787,0xfa2cf8ec,0xfc8cfbd3,0xfbf1fcb0,0xf993fa66,0xfac7f9c6,
0xfcedfc3a,0xfe5dfd35,0x01e3004e,0x01100203,0xfcddff70,0xf712fa3c,0xedb7f263,0xe7bdea31,
0xec2be763,0x0604f74e,0x259a155b,0x4cc73809,0x7b0267ea,0x1cb2603e,0xc7bae1b6,0xe1d7caf8,
0xffb2f946,0xf5d6f995,0xfb92f7f2,0xfafffce0,0xf6bff831,0xf8f2f76c,0xf89af99e,0xf250f5af,
0xf204f0b0,0xf788f548,0xf85bf7e9,0xfb8af9e4,0xfc48fc45,0xfa8afbb6,0xf95cf97a,0xfc8bfaab,
0xfd8efd65,0xfffffe62,0x015c0150,0xff07006b,0xfa39fd01,0xf31df6b6,0xeb97ef8f,0xe80ee89f,
0xf5b0eb95,0x15410514,0x3788254a,0x66a04c91,0x6009787d,0xe4411f72,0xca74c8b6,0xf7c6e033,
0xfa4eff79,0xf80bf66a,0xfd91fbbc,0xf87dfbce,0xf69df657,0xfa11f88b,0xf626f98e,0xf002f1c2,
0xf4fef1d0,0xf7e6f72a,0xf9e3f862,0xfcd2fbf1,0xfbcbfc8d,0xf94ffa67,0xfae8f984,0xfd9dfc95,
0xfe97fe09,0x0121ffe9,0xffa400d4,0xfdb8fec4,0xf72afb3c,0xee89f297,0xe915eb6c,0xeb8ae837,
0x03c7f528,0x247a13e9,0x4aa63674,0x783e64d2,0x23516236,0xcae4e7ee,0xdf21cae1,0xff04f655,
0xf6a3faa0,0xfaf4f7df,0xfbc9fccd,0xf674f8af,0xf8b5f6e1,0xf8fdf9d7,0xf21cf5ca,0xf22ff0c9,
0xf6fcf4af,0xf8bef839,0xfb69f9ce,0xfce8fc9a,0xfa98fc2b,0xf993f96b,0xfc93facb,0xfdb2fdc1,
0xff3efdf1,0x00e3007d,0xfe940010,0xfa95fce8,0xf460f7e4,0xec13efd9,0xe79ae953,0xf413ea46,
0x12f602ec,0x3543233b,0x61454901,0x66f67645,0xecbb2b57,0xc917cbc4,0xf3aadb9e,0xfd3fff6d,
0xf737f867,0xfba3f92d,0xf9cdfbd2,0xf6dbf7ae,0xf8bef787,0xf630f897,0xf0eaf2f4,0xf40af168,
0xf82bf6b9,0xfa87f92d,0xfc56fbb6,0xfc1cfc99,0xf9fefae7,0xfae2f9f4,0xfd2dfc54,0xfde1fd45,
0x015dffbb,0x00240166,0xfccffe60,0xf84dfb3e,0xef72f3d6,0xe9c7ebfc,0xeaf1e8ff,0x00faf2d4,
0x213c112f,0x465232e6,0x768a5ee3,0x30f36b0d,0xcd85f11c,0xd9e2c832,0xff1bf309,0xf686fb79,
0xfafef777,0xfb73fcd2,0xf6e9f8ca,0xf862f6ce,0xf8def9a5,0xf2cff640,0xf1a2f0a7,0xf73af4a3,
0xf8fbf879,0xfb46f9d5,0xfc35fc32,0xfb01fbce,0xfa17fa45,0xfc20faa5,0xfdb4fd72,0xff53fdf8,
0x012e00e6,0xfefc0055,0xfafefd3c,0xf565f86a,0xec54f0e7,0xe902e9f0,0xf19dea59,0x0ea1feea,
0x307d1ee6,0x5c4343c6,0x7064760a,0xf56e38e9,0xc699cdf3,0xf1c1d769,0xfc16ffb9,0xf657f5d4,
0xfd8bfa98,0xf951fc9e,0xf6def6e8,0xf9c3f861,0xf6e0f971,0xf0c2f340,0xf463f16c,0xf84ef70f,
0xf93cf871,0xfba7face,0xfbc9fc04,0xf9cafaab,0xfa87f9ac,0xfdc5fc5f,0xfddafdd6,0x00e1ff13,
0x00e801ad,0xfd16ff2b,0xf8e1fb2c,0xf0d6f569,0xea6bec50,0xeb26ea6f,0xfcb4f08e,0x1cfe0c7e,
0x42192ea5,0x764a5b02,0x3d6372f6,0xd04cf9f2,0xd4e9c667,0xff6aee8e,0xf72cfe7e,0xf800f512,
0xfcd6fbd2,0xf782fa7e,0xf766f656,0xf9e5f94b,0xf40cf7d5,0xf107f11f,0xf6bbf38c,0xf8faf8b5,
0xfac4f930,0xfc57fc23,0xfb66fc3d,0xf959f9ef,0xfbe3fa2d,0xfddcfd6a,0xfee2fdf9,0x00b70012,
0xff3d0098,0xfaf0fd05,0xf5c2f8be,0xecf6f18b,0xe936ea4f,0xf06de9cd,0x0deafdfa,0x2f881df2,
0x5a15428d,0x70b373fa,0xfa0b3c3b,0xc7a1d170,0xee2cd581,0xfe45fe6e,0xf6c4f82d,0xfc71f975,
0xfa54fcf8,0xf680f741,0xf95df7cd,0xf74ff98f,0xf141f3a8,0xf387f16a,0xf7e2f614,0xf9f8f8eb,
0xfc08fb49,0xfbe6fc1d,0xf9a3faeb,0xfac6f983,0xfd63fc64,0xfd8efd91,0x0077fead,0x00560111,
0xfc68fe99,0xf8dcfac6,0xf1c2f5b0,0xebb3ee15,0xe8c5e979,0xfd6cef5c,0x1d830d9c,0x41c22eca,
0x71e7589b,0x40577124,0xd34ffe39,0xd524c7f1,0xfda2edc2,0xf700fca4,0xf9f8f6be,0xfc82fcc1,
0xf73bf9be,0xf7f9f6a0,0xf92ff98b,0xf33ef695,0xf12ff0ee,0xf668f3bf,0xf8b1f805,0xfb0df966,
0xfcd4fc7e,0xfb59fc72,0xf9cffa12,0xfc3bfac6,0xfdb3fd64,0xfe66fd97,0x006fffd1,0xff13002a,
0xfbd4fd72,0xf65bf9a8,0xeceaf1b7,0xe98eea5f,0xee8fe998,0x0c29fb5c,0x2d9a1c8d,0x56df406c,
0x737770bd,0x02e045c5,0xc75bd542,0xe9e5d1cc,0x00d0fe49,0xf54ff8c4,0xfc0ff804,0xfb0afd9c,
0xf627f751,0xf984f7aa,0xf78bf9c5,0xf0a4f3b9,0xf314f061,0xf836f664,0xf957f8aa,0xfb8efabb,
0xfc14fbbc,0xfaccfbe4,0xfa6dfa08,0xfd64fbd9,0xfde2fde9,0x0004feb2,0x001a0099,0xfd1afed1,
0xf9a4fb55,0xf1cbf6e5,0xeb26ece8,0xe966ea0c,0xfb1fee7a,0x1bc40b91,0x3f312c96,0x6fed554b,
0x486874d8,0xd6620524,0xd18bc724,0xfd2eea10,0xf917ff49,0xf85ef67c,0xfcbbfb77,0xf814faee,
0xf736f699,0xf92af8c8,0xf424f74c,0xf153f19d,0xf5e9f344,0xf873f7b1,0xfb1ef983,0xfc48fc0c,
0xfb40fc23,0xf969fa06,0xfbcafa02,0xfe29fd97,0xfee3fe11,0x01030059,0xff330084,0xfb85fd97,
0xf5c4f879,0xedbdf2b8,0xe9ecea76,0xeedaea31,0x09a8fa48,0x2b1219f6,0x543c3db5,0x76a56f9f,
0x08804c2e,0xc80fd88b,0xe774d096,0xff3afae9,0xf755fa5c,0xfa6df82b,0xfb0cfbf0,0xf705f89e,
0xf8fff756,0xf7c3f9ca,0xf14bf424,0xf2ccf0c0,0xf7abf5b9,0xf941f864,0xfc36fafc,0xfc23fc66,
0xfa48fb52,0xfa9ff9f5,0xfd33fbe0,0xfdf5fde3,0xffcdfe87,0x0009008a,0xfdeafefd,0xf9cdfc46,
0xf2cbf6a5,0xebcbeeb9,0xea0bea51,0xf8cfedf4,0x18010813,0x3b2028ce,0x6bca50cc,0x52337634,
0xdd3e10ad,0xce3fc8a7,0xfbbde566,0xf86b0001,0xf7dcf4e3,0xfd6efc11,0xf797faf3,0xf7a6f680,
0xf989f91a,0xf46ff7f1,0xf148f1a5,0xf5c6f304,0xf83af797,0xfab1f930,0xfc13fbc4,0xfb4ffbfa,
0xf9b4fa3b,0xfbcefa46,0xfe4ffd7d,0xfe4dfe18,0x00b0ffb4,0xff24005b,0xfbbcfd4f,0xf6daf9e6,
0xeec9f317,0xea4debca,0xed45e954,0x07adf88c,0x285e1778,0x50593aea,0x78866bf0,0x11a75506,
0xc811dcc0,0xe551ce4f,0xfe9dfa7f,0xf5e4f866,0xfc1af8a7,0xfaa3fcfc,0xf6a1f78c,0xf9c4f815,
0xf7d1f9dd,0xf1caf497,0xf267f0c3,0xf797f574,0xf90cf863,0xfbe8fa6b,0xfc2afc93,0xf9fffafe,
0xfab2f9f0,0xfd84fc07,0xfda4fe08,0xff66fdfb,0x00b300a7,0xfd41ff64,0xf956fb0e,0xf3edf784,
0xeb49ef01,0xe949e941,0xf8a2ede2,0x180c07d9,0x3acd28be,0x6bd4506e,0x53737707,0xdd6a118b,
0xceb6c8ca,0xf933e4a2,0xf982fe88,0xf8eff6b8,0xfce6fc22,0xf7e3faae,0xf827f70a,0xf9b6f985,
0xf3eaf7b8,0xf076f0d3,0xf575f296,0xf854f768,0xfab0f93e,0xfcaefc17,0xfb87fc73,0xfa08fa56,
0xfc41fae5,0xfd8ffd6a,0xfe11fd49,0x00b1ff95,0xff3000aa,0xfb40fd39,0xf72ef930,0xefeff419,
0xea59ec98,0xed0ce96c,0x05dbf736,0x26e015ff,0x4d6238dd,0x76e567be,0x19ff5a18,0xca51e2d2,
0xe20ccd36,0xfe9cf7bb,0xf64bf9ad,0xfb73f84e,0xfad5fc8c,0xf694f7f5,0xf930f775,0xf822f9c4,
0xf1d2f4fd,0xf1e3f071,0xf76cf4fb,0xf91ff86b,0xfbd5fa63,0xfcc0fcbc,0xfa68fbda,0xfa07f997,
0xfd32fb6e,0xfda1fdf7,0xff56fdef,0x004a008a,0xfe28ff1e,0xfb9efd3f,0xf431f86c,0xea62ef4e,
0xe96ce876,0xf5bbecb3,0x14e40483,0x37ea25c6,0x69184cef,0x5dbc7a7f,0xe2581b78,0xcbeac921,
0xf785e133,0xf989fe82,0xf868f64e,0xfd1ffbcd,0xf7e1fb19,0xf767f665,0xfa9af9aa,0xf4e7f8a9,
0xf09ff1a1,0xf4faf22a,0xf811f738,0xf9a5f861,0xfc76fb91,0xfb8cfc43,0xfa00fa7f,0xfc31faba,
0xfdf6fd80,0xfd94fd8d,0x00ceff22,0x00500120,0xfbaffe66,0xf7d8f96f,0xef60f4a7,0xe9b1eb7e,
0xebfee8bb,0x0526f654,0x24e714b3,0x4cb9374d,0x7ad268bf,0x1b605e65,0xc95ee240,0xe129cc26,
0xfe3cf71a,0xf647f97f,0xfbe2f890,0xfb17fcf6,0xf6fef811,0xf9c7f843,0xf839fa0b,0xf1cef4c3,
0xf25ef100,0xf6dff4bf,0xf8cef80f,0xfb8ffa13,0xfc42fc68,0xfa2afb37,0xfa91f9fe,0xfd3bfba8,
0xfd94fe1d,0xfef4fd6c,0x00930093,0xfd8aff47,0xfa15fbc2,0xf457f7e2,0xecfaf026,0xe9c2eb10,
0xf533ebce,0x1437044d,0x36f82485,0x66954bc6,0x5e577863,0xe7251f0e,0xcc24cc3c,0xf4eadf11,
0xfa1cfdb4,0xf83bf691,0xfce7fb85,0xf848fb38,0xf7c5f6ef,0xf97bf942,0xf4c2f7b0,0xf0bdf1f3,
0xf4dbf229,0xf7edf6c5,0xfac4f936,0xfcd0fc36,0xfb7cfc5a,0xfa87fab7,0xfbddfb0c,0xfd4bfcc9,
0xfddafd43,0x0062ff4e,0xff3f004c,0xfc82fde6,0xf8bbfaef,0xf00df4f9,0xe94aebd0,0xec16e8d1,
0x030af51a,0x231912b4,0x494d3540,0x775762df,0x276f648f,0xcc0feadb,0xdcfbca38,0xfe87f48f,
0xf680fa8a,0xfb54f819,0xfb26fcb5,0xf69cf826,0xf93ff75b,0xf827fa10,0xf234f4fa,0xf129f06e,
0xf722f42f,0xf969f8af,0xfbacfa77,0xfc55fc43,0xfae1fbd5,0xfa9efa50,0xfd23fbae,0xfd71fde3,
0xff1bfd8c,0x00390051,0xfe9bffba,0xfb16fcb7,0xf55cf8ec,0xebd4f0a3,0xe8aae92d,0xf372eb0a,
0x11b801a1,0x33b921fa,0x610b473c,0x698278b0,0xec9a2bed,0xc887cbb4,0xf3b6db14,0xfb7cff13,
0xf812f6d7,0xfcb8fb56,0xf889fb56,0xf761f6df,0xf9c4f904,0xf50df82c,0xf0b4f215,0xf488f1f4,
0xf7b2f679,0xf9b4f887,0xfd13fba6,0xfbfbfd08,0xfa96faf2,0xfbbdfade,0xfdd6fd06,0xfdb4fdb8,
0xfff3feb2,0x000b0060,0xfdb9ff45,0xf8edfb71,0xf263f62c,0xea29eda6,0xea38e902,0xfcb5f048,
0x1da60ca5,0x44132ffd,0x7b105f99,0x34487014,0xcef7f38b,0xd789c7db,0xfe0bf01b,0xf5effb90,
0xfabaf6c6,0xfbdafcf1,0xf74df8f6,0xf948f7c9,0xf946fa47,0xf265f611,0xf17ef082,0xf685f42c,
0xf832f7b7,0xfb36f939,0xfc78fc8e,0xfb4ffbf5,0xfa48fa74,0xfd29fb6a,0xfd79fe00,0xfe4ffd20,
0x007e0008,0xfee3ffd2,0xfc75fd9e,0xf6c2fab3,0xed08f19c,0xe8b3e9fa,0xf0b1ea0e,0x0c7bfd37,
0x2eb41cc5,0x5cb5421d,0x7031781a,0xf8ed391d,0xc7bfd14e,0xed60d58d,0xfcebfd0a,0xf738f7bc,
0xfc12f9d8,0xf940fbc3,0xf791f778,0xf9caf8aa,0xf6cbf96d,0xf0c0f330,0xf3c1f10d,0xf821f69a,
0xf93cf8a3,0xfc8afad6,0xfc22fcea,0xfa67fb18,0xfb8cfa75,0xfdedfd2a,0xfd37fd7d,0xffbdfe2e,
0x00570090,0xfe18ff73,0xfa56fc7c,0xf241f6dc,0xea62ed8c,0xe9cbe95f,0xfaa5ee8e,0x1b120ab3,
0x3faf2cac,0x763658ab,0x40d1757c,0xd3e2fdd4,0xd392c7ce,0xfc1aeb36,0xf786fd1a,0xf9eff6c1,
0xfba4fc15,0xf7aef97b,0xf833f758,0xf97bf973,0xf401f772,0xf186f14b,0xf625f3de,0xf831f776,
0xfb12f964,0xfc9cfc4a,0xfba6fc54,0xfb2bfb00,0xfcc6fbf3,0xfd49fd61,0xfdc1fd05,0x0011ff34,
0xfebfffc9,0xfb6efd2e,0xf8eafa59,0xee78f47b,0xe92aeac6,0xed60e8ed,0x08fcf908,0x2b631991,
0x57b93ef8,0x75ec7443,0x035245db,0xc852d6b0,0xe984d22e,0xfd41fbb2,0xf662f75c,0xfc79f9bf,
0xf9bafc50,0xf72af768,0xfa07f8a2,0xf6f0f971,0xf0f8f394,0xf2d9f0e3,0xf77df56d,0xf9b6f88b,
0xfc75fb67,0xfc2bfc83,0xfacffb8a,0xfb98fac8,0xfdbdfcbc,0xfd52fdd5,0xff33fdc4,0x000b001f,
0xfe30ff53,0xfab5fcd3,0xf343f754,0xeb28eedc,0xe8a4e928,0xf8a1eccd,0x18630850,0x3d2c29dd,
0x72a155ec,0x49ed7689,0xd8aa0777,0xd104c8ca,0xf9fde71e,0xf939fdbc,0xf99cf790,0xfc3dfbff,
0xf7bcf9fc,0xf7def722,0xf947f91c,0xf3bff728,0xf10cf12a,0xf5daf343,0xf8c6f7b9,0xfabdf95b,
0xfcacfc57,0xfbc2fc5c,0xfae9faf0,0xfcf9fbd5,0xfd1bfd8f,0xfd51fc7e,0x000cff2d,0xfef4ffb1,
0xfc87fdd4,0xf7c5facd,0xf016f41c,0xe930ebc6,0xec7ce8c3,0x07bdf7ce,0x28fc17cd,0x53893c45,
0x78036fbe,0x0be64f64,0xc758d9c9,0xe5fdcee4,0xfedbfa9c,0xf6fef910,0xfc8cf9e7,0xfa56fca9,
0xf769f7ef,0xf9d2f867,0xf743f9c7,0xf0f0f3b7,0xf27df075,0xf724f537,0xf986f85e,0xfc49faf7,
0xfc54fcb8,0xfadcfb90,0xfb2dfab1,0xfd76fc55,0xfd5efda4,0xfecefdb5,0xffccffc5,0xfe87ff46,
0xfad8fd08,0xf491f876,0xea50ee94,0xe951e953,0xf74decd8,0x16190631,0x3a6a2754,0x7042526a,
0x51227907,0xddc90f99,0xceb7c993,0xf891e3da,0xf8dffe36,0xf92df66f,0xfcbdfc19,0xf800fab6,
0xf7d3f701,0xf9c9f93b,0xf40bf80f,0xf068f07b,0xf5c6f31e,0xf7f3f73f,0xfb25f90e,0xfce7fcbb,
0xfbbefc71,0xfb27fb2b,0xfc73fba6,0xfd5bfd2e,0xfd2dfcfa,0xff76fe77,0xffceffbe,0xfd11feef,
0xf843fafc,0xef5bf43f,0xe9d9eb76,0xec02e96b,0x0501f5d7,0x259814db,0x4ff33865,0x7a566de0,
0x14a656d2,0xca11dfe2,0xe20ecdf2,0xfdeff6f3,0xf74df9d2,0xfb64f931,0xfa92fbf2,0xf7ecf89a,
0xf995f88c,0xf781f9b4,0xf123f3e4,0xf1f1f05c,0xf72ff4ec,0xf934f82f,0xfc24fadf,0xfc22fc53,
0xfb1ffbbc,0xfbb3fb0f,0xfd5cfc9b,0xfce8fd66,0xff07fd42,0x0049007d,0xfe54ff58,0xfae0fcd0,
0xf3caf7fc,0xece3efdb,0xe88fea2d,0xf507eb44,0x14970421,0x380625c1,0x6b194e51,0x59a17872,
0xe3091aa2,0xccabc9cb,0xf6c6e0e1,0xfa5afe90,0xf8a7f719,0xfc69fb71,0xf80efaa6,0xf7e7f729,
0xf9a0f922,0xf43ff7c3,0xf0b3f16e,0xf4b9f235,0xf877f6ee,0xfab9f998,0xfc30fba7,0xfc07fc6a,
0xfb1afb51,0xfc32fb6f,0xfda7fd44,0xfd4afd21,0xff4cfe6f,0xff98ffa4,0xfd1ffebf,0xf9fbfbab,
0xf0a9f641,0xe918eb79,0xec4be98f,0x019af3eb,0x227811a4,0x4bcf354c,0x7a33689f,0x218a6055,
0xcb3ae7d2,0xdd09ca6a,0xfe8df400,0xf75cfb88,0xfb02f84e,0xfb44fc3a,0xf797f905,0xf908f7da,
0xf7f0f98a,0xf170f4a8,0xf210f040,0xf70bf50e,0xf92cf833,0xfbb2fa52,0xfc85fc79,0xfb32fc14,
0xfb4dfac2,0xfd80fc61,0xfd95fe02,0xfe76fd6c,0xffe7ffa8,0xff30ffa3,0xfbf8fdf7,0xf4bcf8fb,
0xec42f036,0xe8b0e9a5,0xf2eaeaa2,0x109e00ff,0x3388214c,0x664548ff,0x63cb7a75,0xebb72637,
0xcbdfce32,0xf2f8dcc4,0xf9fdfd05,0xf839f6a2,0xfc15fb00,0xf89cfadc,0xf803f79c,0xf931f8d6,
0xf528f7eb,0xf0e7f23c,0xf4cef246,0xf7aff68a,0xfa65f8e2,0xfcdffc04,0xfc0dfcca,0xfacefb1d,
0xfc18fb33,0xfdb2fd4a,0xfd11fd18,0x0005fe74,0xffd5006d,0xfc4ffe5b,0xf96ffae2,0xf221f6b6,
0xe94cec68,0xea7be924,0xffe1f191,0x20f7104a,0x489033c4,0x79d2634c,0x2b196832,0xccf4edd8,
0xd9dac8d1,0xfde0f15c,0xf6fbfbae,0xfadff7b4,0xfc14fcda,0xf772f957,0xf88df772,0xf8a5f985,
0xf1dcf580,0xf1baf046,0xf700f4a2,0xf906f84a,0xfbaefa36,0xfc38fc35,0xfbfbfc60,0xfb40fb44,
0xfcdbfbe1,0xfddefdd8,0xfdfafd71,0x0053ff2d,0xff420095,0xfb80fd61,0xf627f923,0xebf4f196,
0xe8a7e8bd,0xf0deea79,0x0d9bfda9,0x30b01e62,0x618145a1,0x6cc47a42,0xf2b631a2,0xc9a2d009,
0xeeb5d7f1,0xfc27fcb2,0xf7c0f7a9,0xfbeafa44,0xf955fb6a,0xf849f816,0xf9f5f947,0xf57df8a1,
0xf06df225,0xf427f17f,0xf803f692,0xfa3df8e1,0xfcbbfbef,0xfbcffc6d,0xfb08fb51,0xfc2efb4a,
0xfd97fd36,0xfca2fcfe,0xff18fd8d,0x0082004e,0xfd7fff63,0xf926fb8a,0xf19af5c4,0xeb14eda3,
0xe8f3e927,0xfd14ef76,0x1e060d1b,0x4543308d,0x791960e6,0x35e46d1c,0xcfd3f688,0xd5fbc7b0,
0xfd13edb0,0xf753fcae,0xfa19f6df,0xfc5efcc5,0xf7bcf9ba,0xf8fff7af,0xf87cf9d2,0xf262f58e,
0xf182f094,0xf672f417,0xf8f9f7fb,0xfb55fa13,0xfcb9fc39,0xfbf1fca9,0xfbadfb59,0xfd55fca3,
0xfd09fd78,0xfdadfcb7,0x0086ff75,0xff3e0045,0xfb8efdb3,0xf5cbf914,0xecb6f146,0xe7f5e9a4,
0xef83e8a1,0x0cd8fd11,0x2f161d0d,0x5eec4398,0x700478e6,0xf8e23941,0xc805d181,0xecafd517,
0xfcb3fca5,0xf784f7a2,0xfc44fa5b,0xfa15fbfe,0xf873f88f,0xf9f2f94d,0xf591f8c8,0xf04bf1fe,
0xf3bff147,0xf7f2f63d,0xf9f2f8f5,0xfc82fb2b,0xfc69fd18,0xfae1fb61,0xfc53fb42,0xfd65fd33,
0xfc6efcd8,0xff0bfd67,0xfffafffc,0xfd3cfefd,0xf99bfb7d,0xf25af6ac,0xea83eda4,0xe988e8fa,
0xfc50efc4,0x1c720bcc,0x43172eaa,0x75d75d16,0x3c1c6f7b,0xd324fbed,0xd44ac840,0xfc27ebbe,
0xf7f1fcda,0xfa92f78b,0xfc6afcd4,0xf813fa05,0xf88cf7c1,0xf837f93d,0xf2caf5a1,0xf141f0d7,
0xf66ff3c1,0xf8b1f818,0xfb37f990,0xfcf7fc7b,0xfbc7fcae,0xfb68fb2d,0xfcdcfc16,0xfd52fd82,
0xfd64fcba,0x006bff31,0xfefb0027,0xfb1dfd65,0xf63ff8d0,0xed41f1d4,0xe9b0eb1a,0xeec7e94b,
0x0b23fb48,0x2d771ba3,0x5b344181,0x73247628,0xff204081,0xc735d439,0xea24d258,0xfcebfbbe,
0xf78df7c3,0xfd04fad1,0xfa31fc82,0xf822f859,0xf931f8d5,0xf591f82a,0xf0cbf290,0xf416f17c,
0xf7fdf685,0xf9e8f8fb,0xfc32fb1f,0xfc59fc9b,0xfaebfb8a,0xfc53fb56,0xfd25fcf3,0xfca0fcf2,
0xff03fd4e,0xffc20013,0xfcf9fe95,0xf9e9fb78,0xf308f760,0xea77edb1,0xe96ee96e,0xfb3dee9c,
0x1c590b69,0x41772e32,0x73de5a88,0x40276fca,0xd69d01bc,0xd32cc8d6,0xfb36e9f2,0xf7c0fcc2,
0xfa1af725,0xfc53fc8e,0xf7e0f9b4,0xf959f855,0xf812f984,0xf225f509,0xf1cdf0dd,0xf659f438,
0xf81ef787,0xfb24f92f,0xfcc7fc7a,0xfbdcfc96,0xfb59fb3a,0xfd1ffc2f,0xfd48fd8b,0xfd3bfcbf,
0xffd8fed0,0xfe63ff80,0xfc38fd53,0xf71efa4c,0xed22f266,0xe8fbe9e9,0xef2ee9a1,0x0b80fbbd,
0x2df91bf2,0x5a354189,0x70257332,0x01ee4141,0xc955d68f,0xe96fd362,0xfc1efa50,0xf7a8f7c9,
0xfce2fab2,0xfa5cfc7a,0xf8c2f8fa,0xf90ef8ee,0xf540f7fb,0xf0a1f22a,0xf3e3f195,0xf76cf5fc,
0xf96bf84a,0xfc87fb3b,0xfca4fcce,0xfb4dfbf8,0xfc3cfb7f,0xfd4efcf6,0xfc80fce1,0xff32fd77,
0xff69fff0,0xfddbfea8,0xfacdfc92,0xf305f7c6,0xea33edfa,0xe8c1e85e,0xf988edab,0x1ac009bc,
0x40582cbe,0x72305852,0x485c7417,0xd76806af,0xd122c7ae,0xfab7e86d,0xf6aafc40,0xfa59f657,
0xfd12fd5a,0xf7cffa42,0xf907f7ab,0xf939fa21,0xf21af5cd,0xf11af08c,0xf639f33c,0xf85bf800,
0xfabff924,0xfd17fc55,0xfbcdfcc5,0xfae7faef,0xfcfbfbce,0xfd64fda5,0xfd5cfcea,0x0024fec7,
0xff6a0075,0xfbb5fd99,0xf721f9bd,0xed4af2cd,0xe905e9d7,0xed8ce923,0x0a16f9b3,0x2cfc1ae6,
0x58a540b1,0x745b7304,0x06204765,0xc7a2d782,0xe795d0b2,0xfc41fa0d,0xf70bf745,0xfd75fab5,
0xfa93fd24,0xf83af88a,0xf99af8f5,0xf57cf883,0xf073f240,0xf3b6f127,0xf7c2f622,0xf98df8c1,
0xfc58faf8,0xfc61fca9,0xfaadfbaa,0xfc00fab3,0xfe04fd5c,0xfd03fdbe,0xff17fd60,0xfff50039,
0xfd92ff1a,0xf95dfb6f,0xf2ddf693,0xeab3eedc,0xe856e7db,0xfa02ee1b,0x1a31098a,0x3ff92c4f,
0x73835837,0x49777662,0xd61305fd,0xd0f5c6ce,0xfa60e86b,0xf731fc15,0xfad0f71e,0xfcbafd2c,
0xf84efa78,0xf919f819,0xf878f97a,0xf237f5ab,0xf101f05a,0xf616f38c,0xf839f753,0xfb77f9a9,
0xfd47fcf5,0xfb4cfc7d,0xfaf6fa9f,0xfcb2fbbb,0xfd79fda7,0xfcaefc6d,0x005ffea8,0xfffc00dd,
0xfae3fda6,0xf6eaf8d0,0xed57f2e9,0xe87ce9dd,0xee2de8ae,0x0ac9fabb,0x2d561b5d,0x573540c2,
0x73987002,0x08894a2c,0xc72ad7e1,0xe7bfd03f,0xfc5bfa9c,0xf682f6be,0xfd95fa99,0xfae5fd59,
0xf7eef8ac,0xf961f888,0xf540f867,0xf06df1f7,0xf3e5f152,0xf83ef69b,0xf934f892,0xfc4afae6,
0xfcf7fcfc,0xfa9afbdc,0xfb02fa4c,0xfd51fc43,0xfcdefd64,0xfee8fd4d,0x00190020,0xfd7eff2b,
0xf9f3fb84,0xf2ecf796,0xea4fedb0,0xe8b3e892,0xfa6cee19,0x1add0a4b,0x40022cb4,0x705a5757,
0x49e272cb,0xd98509e1,0xd02cc822,0xf9d7e6e2,0xf721fc4d,0xfa42f67c,0xfdd6fdc2,0xf872faf4,
0xf86ff7d7,0xf84ff92d,0xf1cef536,0xf111f022,0xf69bf3d7,0xf899f81e,0xfacbf944,0xfd21fc6d,
0xfbb6fcc8,0xfabcfab2,0xfc75fb99,0xfd1efd14,0xfd7cfcdf,0xfffafeea,0xff30fff7,0xfbfbfdf9,
0xf67ff95c,0xecb7f238,0xe8bde97a,0xef6be976,0x0b85fc19,0x2c871b42,0x55983f93,0x74316e43,
0x0a174cf4,0xc765d846,0xe693cfab,0xfc2cf994,0xf74ef761,0xfe16fb53,0xfa90fd56,0xf7f0f871,
0xf98ff8b6,0xf52cf87c,0xf063f1d9,0xf38bf12d,0xf7d9f620,0xf915f85d,0xfc76faee,0xfccdfd15,
0xfa76fb7e,0xfb85fa9a,0xfd01fc7a,0xfc62fcdd,0xff30fd23,0x00ba0098,0xfdf6ffdf,0xf9cafbc7,
0xf20af6a8,0xe9fced66,0xe912e85c,0xfa88ee83,0x1aa80a60,0x3f332c0a,0x705e5606,0x4d3a7666,
0xd7c10966,0xd02cc742,0xfa15e779,0xf689fbc7,0xfad6f69e,0xfdc9fdf3,0xf84ffb06,0xf859f783,
0xf8c7f978,0xf18ff57b,0xf0d0ef9a,0xf62bf3c5,0xf7f8f75b,0xfb08f910,0xfd8cfcd7,0xfc10fd29,
0xfab1fafd,0xfc2bfb33,0xfce3fd06,0xfd5afc67,0x0048ff34,0xfeac0013,0xfbdefd19,0xf6c6f9fa,
0xed7cf231,0xe875ea37,0xeeeee8f6,0x0b94fbc1,0x2d0d1b78,0x564b405e,0x73526eb4,0x0a034b63,
0xc788d8d5,0xe682cfef,0xfc0ef901,0xf769f7c5,0xfe15fb15,0xfb42fdf1,0xf79df883,0xf964f874,
0xf57cf874,0xefe1f203,0xf352f097,0xf71df5ca,0xf938f7f0,0xfcc3fb11,0xfd47fd95,0xfaa2fbfd,
0xfb1ffa6c,0xfd11fc10,0xfc9afd2e,0xff10fd42,0x000d003d,0xfdf2ff08,0xf99dfc4e,0xf213f65c,
0xea4ded71,0xe971e8b2,0xfacfef22,0x1a5c0a32,0x3f4d2bd5,0x6f3a55e7,0x4db07525,0xd94a0b63,
0xcfc7c799,0xf97ce6ab,0xf699fbbc,0xfaebf685,0xfe29fe5d,0xf80ffb03,0xf87ef764,0xf88bf9ae,
0xf119f4c3,0xf120efc2,0xf628f3c4,0xf863f7c6,0xfaf9f921,0xfdc0fced,0xfbf5fd3b,0xfa8dface,
0xfbfdfb1f,0xfd60fd0a,0xfcd0fcbd,0x002cfe5b,0xffbd00a7,0xfc00fe41,0xf74ef98f,0xee6cf39f,
0xe7c0ea02,0xee09e84f,0x0902f9e4,0x2a0f18c5,0x53303d45,0x78236d98,0x10be5444,0xc724db5d,
0xe497cdd3,0xfc3ef8d7,0xf558f66f,0xfe08f9d5,0xfbd3feac,0xf75ef865,0xf9c0f88a,0xf5b1f8f4,
0xf022f1fd,0xf347f0ce,0xf7a4f60b,0xf86ef7f5,0xfc83fa38,0xfd07fd80,0xfa9bfbe0,0xfb36fa56,
0xfd16fc2f,0xfceafd6d,0xfe95fd2e,0x00dafff4,0xfe45005d,0xfa25fc18,0xf262f72e,0xe97aed14,
0xe921e813,0xf9ceee7f,0x193e092b,0x3d582a67,0x6e6153b0,0x5206771d,0xdb610fd6,0xce0ec736,
0xf8ebe4bd,0xf700fc79,0xf9f6f5f1,0xfe78fdeb,0xf841fb7b,0xf7fcf748,0xf8e6f933,0xf272f5dd,
0xf139f0b7,0xf636f3af,0xf7cef77c,0xfa96f892,0xfd6bfcb8,0xfb67fca3,0xfa35fa5a,0xfc91fb50,
0xfd64fd4a,0xfd58fcf4,0x004afefa,0xffa0007a,0xfc59fe0f,0xf6f8fa33,0xed8af276,0xe932ea5f,
0xed1ce917,0x07a2f847,0x294f17b0,0x538f3cb5,0x79c76f72,0x112b54ee,0xc6a5db5c,0xe402cd35,
0xfc4cf881,0xf5a4f6d1,0xfe13f9d9,0xfbbdfeb4,0xf72cf84f,0xf998f843,0xf5f0f903,0xf078f24b,
0xf399f130,0xf79af636,0xf88af7de,0xfc13fa36,0xfd24fd3a,0xfab8fbed,0xfb10fa8a,0xfd2cfc0d,
0xfce2fd56,0xfecbfd4c,0x006d002b,0xfeb9ffeb,0xf930fc1a,0xf2faf6a9,0xeab3ee76,0xe8e8e889,
0xf849edb8,0x16f206ed,0x3af02808,0x6b3350f9,0x58df77a0,0xe0311813,0xcbdbc810,0xf765e199,
0xf731fcb9,0xfa27f5ac,0xfe9dfe5b,0xf828fb90,0xf7abf6dc,0xf8c3f8f2,0xf2c8f62d,0xf0e0f0bb,
0xf62df327,0xf839f7e8,0xfa34f8d0,0xfd50fbe0,0xfc7bfd98,0xfa46faf2,0xfbd7fac9,0xfd83fd0a,
0xfd0cfcee,0xffe8fe81,0xffda0073,0xfcfafe65,0xf7affaff,0xef35f3b2,0xe84feaeb,0xebdae7f2,
0x053ef64a,0x26b11566,0x504739a7,0x7aaa6c8c,0x19e05bbd,0xc77be0c4,0xe073caae,0xfcf0f6c8,
0xf5fcf7da,0xfe1bf9df,0xfc2efeef,0xf725f8a8,0xf8d4f7c2,0xf61df88b,0xf088f2bf,0xf36df0de,
0xf7c6f62b,0xf908f881,0xfb5cf9f8,0xfd3dfca4,0xfb51fcaf,0xfaaffa61,0xfd39fbee,0xfca5fd68,
0xfe6cfcd5,0x00a7000a,0xfe810006,0xfa3cfc83,0xf3c9f791,0xea4aeeb8,0xe864e846,0xf65aec1e,
0x15aa057e,0x3a1c2707,0x6b444f9e,0x5d8a7b2b,0xe0501abd,0xca20c692,0xf7bbe0b1,0xf734fd7f,
0xf988f50e,0xfefdfe15,0xf8bffc51,0xf81cf749,0xf8edf945,0xf25af62d,0xf0a4f01e,0xf624f333,
0xf8acf80e,0xf99ef8c7,0xfd02fb5c,0xfd25fdcb,0xf9edfb50,0xfbd5fa47,0xfd98fd4b,0xfcb2fcbb,
0x0046fe89,0xffde009d,0xfc7bfe2f,0xf804fac6,0xf04cf48a,0xe8f9ebdf,0xea48e7ac,0x030ff416,
0x246e133e,0x4deb37a3,0x7b9069e7,0x21f8629a,0xc788e4a3,0xde39c8e4,0xfd1ff5fc,0xf514f75e,
0xfdf7f940,0xfc8eff31,0xf728f8e9,0xf8e1f7a8,0xf680f8ed,0xf0caf2f4,0xf2def0c8,0xf792f5b9,
0xf889f83f,0xfc17f9cb,0xfe2dfdcd,0xfb4dfd31,0xfa2df9fd,0xfcdffb63,0xfd24fda7,0xfe4cfcf0,
0x0093ffef,0xfe22fff2,0xf9e2fbca,0xf51bf826,0xec29f074,0xe8c7e9de,0xf38ceaab,0x118301e3,
0x35802276,0x672e4b52,0x65e07aa7,0xe9242804,0xc842c918,0xf477dc11,0xf85efdb3,0xf8cbf503,
0xff2cfdc5,0xf883fc6a,0xf78cf6c5,0xf922f908,0xf320f6bc,0xf08ef0ac,0xf5cef2c6,0xf889f7c7,
0xf9d9f8ee,0xfce9fb78,0xfcb8fd77,0xfa26fb0b,0xfbe0fab1,0xfda9fd20,0xfcd1fd07,0xffdafe2d,
0x005500ab,0xfd43ff09,0xf8bffb30,0xf013f503,0xe9b2ebf1,0xea34e8d9,0xff9bf187,0x206a0fdb,
0x479932de,0x7acb6270,0x30f56da9,0xca6dee7c,0xd83fc611,0xfdf9f20b,0xf42bf8ff,0xfde6f7bd,
0xfdb70074,0xf666f8e7,0xf877f6c3,0xf798f978,0xf118f3f2,0xf25cf052,0xf7e3f5a6,0xf8b4f8a6,
0xfb1cf96c,0xfd81fcb1,0xfb7dfd22,0xfa12f9f4,0xfd1cfb8d,0xfd74fdcd,0xfdc7fd11,0x00e6ff74,
0xff4c00ed,0xfbabfd19,0xf670fa39,0xeb85f065,0xe914e9c6,0xefdee9d1,0x0c54fc3e,0x2fc01d79,
0x5f7e443c,0x73747aca,0xf5aa3a77,0xc46ccc81,0xef5ad4c3,0xfa9afe0f,0xf74ef513,0xff0efc97,
0xf9b8fd54,0xf769f76f,0xf8b2f84d,0xf4caf788,0xf11af211,0xf558f290,0xf7f1f76b,0xf8cff7e7,
0xfcc8facd,0xfd1ffdb5,0xf9cdfb61,0xfb98f9ed,0xfe47fd57,0xfd0ffddd,0xff94fddf,0x00a40088,
0xfde9ffb2,0xf9abfbf2,0xf08ff5fd,0xea35ebfb,0xe906e91c,0xfb13eeae,0x1b780abe,0x42102dc0,
0x7a9d5d0a,0x4179784a,0xccdaf9be,0xd218c2cb,0xfe5ced6c,0xf4c4fb7a,0xfc97f672,0xfe1a0016,
0xf6bdf98f,0xf807f6b0,0xf89cf93e,0xf1c1f55c,0xf1e5f060,0xf781f502,0xf8dff89f,0xfad6f94f,
0xfdc3fcc2,0xfb37fd22,0xfa06f9bd,0xfd20fb94,0xfdd8fe08,0xfd8afd0c,0x0082ff5b,0xff580057,
0xfc08fded,0xf5b8f94e,0xecd8f145,0xea76eaac,0xef02eae6,0x084bf97e,0x2b1c18e5,0x573c3e5e,
0x79647568,0x037c49dd,0xc3f6d274,0xea0cd01c,0xfc70fcec,0xf613f588,0xff9bfbc8,0xfa1efe56,
0xf6cef714,0xf95cf82a,0xf557f89a,0xf07df1d9,0xf49af1a7,0xf88ff763,0xf92bf8ba,0xfc87fa91,
0xfd73fdc5,0xfa63fbe9,0xfb02fa14,0xfe21fca4,0xfcdffe0e,0xfe37fccb,0x0039ffc3,0xfe0dff6b,
0xfa6cfc71,0xf264f71e,0xeb9eee5f,0xe84fe906,0xf893ed21,0x18a207f2,0x3e142a9f,0x735f5682,
0x4dab7950,0xd4fc07d3,0xce7dc45c,0xfb88e79c,0xf6c5fd14,0xfb65f65c,0xfe99ff5b,0xf743fa8d,
0xf75af689,0xf7f3f856,0xf291f58c,0xf193f0c7,0xf72af489,0xf8eff857,0xfad0f9ae,0xfe45fca3,
0xfbfbfde9,0xfa43fa6f,0xfc93fb58,0xfd34fd53,0xfcb6fc5c,0xffeafe69,0x005a00b8,0xfd0bfee7,
0xf72afa9e,0xeeeff30b,0xe934eb67,0xebcce89c,0x053ef5dd,0x270315c8,0x50bb3a05,0x7d386e46,
0x13035a2c,0xc3dfd9d3,0xe405cacb,0xfea8fb29,0xf523f6f0,0xfefcfa81,0xfadcfe83,0xf6def7b3,
0xf954f7e7,0xf651f914,0xf10df302,0xf402f16a,0xf80cf6ac,0xf8fff8a6,0xfbdcf9fa,0xfe1efd8e,
0xfad2fcee,0xfa77f9ca,0xfdc8fc44,0xfcd3fdbf,0xfe34fcd3,0xffecff97,0xfe95ff99,0xfbc4fcfc,
0xf419f918,0xebedef96,0xe7e6e8ce,0xf4e6eb55,0x13fa038c,0x38d52599,0x6bec4edb,0x5e1b7d04,
0xddbe18d7,0xc9f8c516,0xf901e1a6,0xf753fe19,0xfa17f551,0xfec9fe9c,0xf7f6fb64,0xf79ef6dc,
0xf8dff8dd,0xf336f677,0xf15ef13d,0xf67ef3a2,0xf868f7fc,0xfa35f906,0xfdf0fc1b,0xfcb0fe3e,
0xf993fa81,0xfc74fa82,0xfe55fe29,0xfc94fd16,0xffaffdf2,0xffa6003a,0xfcbbfe83,0xf880fab2,
0xf009f4d7,0xe950ebf3,0xeaa9e838,0x0217f39c,0x23a1123f,0x4c7b36cb,0x7deb6989,0x1fb5641b,
0xc5e8e1a5,0xde2fc7fb,0xfec9f70c,0xf512f86d,0xfe79f952,0xfc66ff7c,0xf6c6f883,0xf908f772,
0xf6faf945,0xf0e4f385,0xf366f0c5,0xf823f684,0xf8e2f872,0xfbddfa35,0xfe17fd5b,0xfb00fd15,
0xfab4f9f7,0xfe04fc71,0xfce1fe2d,0xfd49fc14,0xffaaff19,0xff0bff74,0xfbdffdd7,0xf570f937,
0xed68f105,0xe98aeb53,0xf0a3e9bc,0x0e59fe47,0x321a1f4e,0x6121468a,0x6dbf79fd,0xedf43138,
0xc58bc985,0xf314d88c,0xfa32ff15,0xf83df56d,0xff27fd48,0xf8bcfcb9,0xf6f9f691,0xf8faf85d,
0xf50ff7d0,0xf120f222,0xf59ff2e2,0xf848f783,0xf978f88c,0xfccdfb2d,0xfd54fdd4,0xfa46fb63,
0xfc74faf1,0xfe56fde5,0xfc8ffd6c,0xfeedfd32,0xfff30021,0xfdcbff1d,0xf8d7fb85,0xf288f620,
0xead6ede5,0xe9dde9c6,0xfafaeed1,0x1c980b3f,0x43932f3b,0x7b645eb4,0x39d674c7,0xcb73f3cd,
0xd4f0c425,0xff02eff1,0xf541fb71,0xfc6cf70e,0xfd05ff1d,0xf67af8bd,0xf860f6ea,0xf82ef96a,
0xf22bf4ed,0xf29ff13c,0xf859f5ca,0xf8d8f907,0xfa77f91a,0xfd6efc43,0xfbeafd5e,0xfab2fa8e,
0xfdb6fc04,0xfdb8fe96,0xfd18fc98,0x0003fec8,0xff2f0012,0xfc22fda9,0xf731fa4f,0xee38f2f9,
0xe960eac5,0xed73e937,0x087df8c2,0x2c5719a3,0x599e4045,0x78e57791,0xfdbe4515,0xc309cf53,
0xec57d0e4,0xfd42feea,0xf671f603,0xfebafb6f,0xf973fd7f,0xf6fbf6d7,0xf945f843,0xf687f8e9,
0xf10ff32a,0xf50cf1fd,0xf869f77d,0xf941f8a7,0xfc98fae9,0xfce4fd43,0xfa64fb86,0xfc31fac6,
0xfe98fdc2,0xfc30fdbe,0xfe22fc48,0x001effdd,0xfe65ff2e,0xfaecfd5d,0xf460f7e0,0xeb4bef68,
0xea60ea53,0xf5f3ecd8,0x15830493,0x3b6127fe,0x70e252ee,0x52bd7adb,0xd8380d6d,0xcd2ac4ce,
0xfb40e5cf,0xf751fe1a,0xfa20f5fd,0xfcfbfd7e,0xf733f9b5,0xf7b9f6d9,0xf897f8be,0xf3aaf695,
0xf228f1a4,0xf79ff4d7,0xf948f921,0xfa84f95c,0xfccefbed,0xfc50fd1a,0xfaa8fb07,0xfddffbcb,
0xfea9ff42,0xfbaffca2,0xff11fd0d,0xffa6001f,0xfce7fe12,0xf9b8fc3d,0xef8ef4a7,0xea39ec52,
0xea00e847,0x0211f347,0x24c912ad,0x4dde3834,0x7e7c6b5d,0x1ab160f9,0xc377dd8d,0xe05cc7c7,
0x000cf9ef,0xf525f858,0xfde4f93b,0xfaf8fe82,0xf5f3f727,0xf8cff708,0xf785f95e,0xf1fef470,
0xf47df1d8,0xf89ff76b,0xf97df901,0xfb2cfa2a,0xfd43fc89,0xfb16fc61,0xfbbdfadf,0xfea9fd4a,
0xfcb5fe82,0xfd47fbc1,0xff84ff21,0xfefeff4f,0xfc0bfded,0xf4aaf915,0xed2ff048,0xe8e6eabb,
0xf242ea27,0x10b30096,0x344721ae,0x65be4946,0x67817c5c,0xe5dc25a2,0xc6dbc721,0xf5a6dbd9,
0xfa69ffbb,0xf89ff5f8,0xfe48fd13,0xf7ecfb99,0xf6cbf63a,0xf94cf856,0xf526f80a,0xf212f2c5,
0xf60ef383,0xf8abf7dc,0xf9c6f92e,0xfc8ffae0,0xfd1afdb2,0xfaa7fb78,0xfd32fb65,0xff01fef3,
0xfbccfd2a,0xfe4ffc82,0xff71ff91,0xfdb4fe69,0xfa75fcf0,0xf135f60c,0xea03ed24,0xe8c6e802,
0xfe40eff8,0x20590f17,0x46b2330e,0x78cb5fd8,0x31836dc5,0xc942ee37,0xd714c44a,0x0067f2c1,
0xf5a4fbaa,0xfc9df78c,0xfcb1fee6,0xf6a0f8cb,0xf822f6c5,0xf89bf953,0xf2cff5c2,0xf3d9f208,
0xf7aef631,0xf956f8a4,0xfb25fa24,0xfd2bfc35,0xfb95fcf6,0xfb6afae1,0xfdf9fc95,0xfd24fe6a,
0xfc1efbca,0xff1ffda2,0xff9fffef,0xfc19fe12,0xf725fa2b,0xedb7f277,0xe8dfeaa1,0xefb2e925,
0x0c81fcf6,0x2f221cef,0x5a7c4225,0x731e75ff,0xf75e3cbd,0xc439cd5c,0xeeaad3bc,0xfcd9feec,
0xf7abf6ee,0xfdcefbbc,0xf908fc4f,0xf6dbf6d3,0xf8fcf823,0xf619f84c,0xf213f370,0xf612f35b,
0xf8e4f80d,0xf98bf91e,0xfbe5faa8,0xfc93fcc8,0xfab7fb4b,0xfca4fb60,0xfed5fe36,0xfc10fda4,
0xfda1fc15,0xffa7ff21,0xfe54ff25,0xfacafd41,0xf326f76a,0xe996eda5,0xe893e7fe,0xfb4eee92,
0x1d0a0bac,0x41492f11,0x71285745,0x435f72b9,0xd21aff87,0xd1aec51e,0xfe05ebfd,0xf64ffce1,
0xfb6cf6c4,0xfd21fe46,0xf6dff9a0,0xf75df64f,0xf8d7f8d7,0xf395f66b,0xf35ef262,0xf7acf5ba,
0xf92af8a6,0xfac8f9ce,0xfcf1fbdf,0xfbf2fd11,0xfb13fafb,0xfd9ffc1f,0xfdb2fe79,0xfc3bfc58,
0xfe88fd2f,0x0003ffcc,0xfcddfede,0xf74bfa74,0xedf1f2de,0xe8a7ea4c,0xede4e8f5,0x08f4f967,
0x2be919e0,0x540c3e5b,0x77146f75,0x07744cdb,0xc43bd51d,0xe832ce32,0xff22fd46,0xf6d3f83d,
0xfdf7faa7,0xfa07fd85,0xf656f6e7,0xf8a0f775,0xf6a9f8a8,0xf1b4f390,0xf51ef294,0xf83df723,
0xf991f8eb,0xfc00faa2,0xfcb9fcf0,0xfb3afbca,0xfc55fb61,0xfec9fdd5,0xfca4fe3a,0xfcfffbf6,
0xff4efe73,0xfea3ff57,0xfbbbfd8d,0xf3d7f857,0xeb63ef5b,0xe779e862,0xf7e2ec0c,0x17b30760,
0x3bd02976,0x6aee5072,0x54de769e,0xdbce12b8,0xcc2dc5ac,0xfa52e436,0xf889fe8b,0xfa13f6a8,
0xfd33fd6b,0xf766fa3d,0xf74af67e,0xf89bf846,0xf4a1f75c,0xf2b7f293,0xf6fdf4c5,0xf8b9f815,
0xfa8df9a7,0xfca6fb77,0xfc1afd17,0xfb56fb1a,0xfdb4fc5d,0xfe70feda,0xfbacfc8e,0xfe35fcac,
0xff30ff3a,0xfce7fe2a,0xf9a8fbc7,0xefb4f52b,0xe8edeb92,0xeb95e80a,0x04b9f5b2,0x27c4158c,
0x4e673a9a,0x78b968ba,0x18aa5b20,0xc606df4f,0xe0a5c9a0,0x0015f8eb,0xf5f0f9ad,0xfce3f8dc,
0xfb8ffe14,0xf674f7e0,0xf879f73d,0xf7baf921,0xf24af495,0xf482f25b,0xf7e5f6eb,0xf8eef81b,
0xfb37fa24,0xfcdefc58,0xfb3cfc0e,0xfc98fba8,0xfea9fda9,0xfc9dfe51,0xfc67fba1,0xff9bfe11,
0xfe83ffd4,0xfb3cfce7,0xf5acf90f,0xec7ef0bb,0xe845e9e5,0xf44eeac2,0x13da0328,0x37d92581,
0x645a4b1b,0x60677689,0xe76c2301,0xc962c985,0xf528dda9,0xf9fdfdf3,0xf8dff6e5,0xfcb0fc09,
0xf88bfabf,0xf748f763,0xf8bbf817,0xf4e5f76f,0xf273f2e9,0xf669f415,0xf8e7f806,0xf9eef94b,
0xfc09fae8,0xfc48fcd0,0xfbb1fb78,0xfd89fc82,0xfe8ffe8c,0xfbcdfd1d,0xfdc7fc2a,0xff89ff43,
0xfdd1feca,0xfa26fc8d,0xf128f621,0xe8d6ec7e,0xe983e715,0x00a1f228,0x239611b6,0x4917360f,
0x772761de,0x2b79674b,0xc98debaf,0xd9dcc6b3,0xffa0f39d,0xf61efb74,0xfb7ef751,0xfc6bfdce,
0xf69bf906,0xf7acf664,0xf7fdf8bc,0xf315f5b1,0xf3f5f215,0xf803f6b0,0xf8fbf862,0xfb5dfa18,
0xfcd3fc7b,0xfb4ffc0b,0xfc3dfb8e,0xfe3dfd1c,0xfd0efe7b,0xfc19fbb4,0xff36fda5,0xff9b000a,
0xfc21fe1c,0xf660f9ab,0xece4f1db,0xe826e9ab,0xf0ffe935,0x0f35ff04,0x32c9208a,0x5e6445ac,
0x6cb0764f,0xf2f634c4,0xc60fcc8f,0xf0c1d6d3,0xfbc8febe,0xf77ef696,0xfcb9fafb,0xf8edfb7a,
0xf6fcf725,0xf8def80e,0xf60af827,0xf239f390,0xf5eff36c,0xf890f7a9,0xf986f900,0xfbbcfa97,
0xfc4bfc7b,0xfbcffba8,0xfdb1fca4,0xff00fecc,0xfbc8fd78,0xfdacfc00,0xffcbff49,0xfdd9ff1c,
0xfab0fc7b,0xf1d2f714,0xeac2ed5c,0xe85ae8bf,0xfb68ee1f,0x1dfb0c3e,0x4370309b,0x74cc5b36,
0x3e047107,0xd00efb62,0xd337c4f4,0xfe63edb6,0xf6a2fcaa,0xfa31f6a2,0xfc01fcb6,0xf77af968,
0xf76ef701,0xf85bf839,0xf36cf67e,0xf308f1d4,0xf7a2f597,0xf92bf8ab,0xfaf2f9ef,0xfcc1fbd9,
0xfc19fcde,0xfc0cfbc5,0xfdeefcba,0xfd6cfe92,0xfbdcfbaf,0xff6ffdbe,0xff620009,0xfd57fe48,
0xf746fb5a,0xedaef237,0xe81dea53,0xed8be80c,0x0ab4fa18,0x2dc11bf9,0x56a9402a,0x74fc7158,
0x03854828,0xc414d2e2,0xea09cfd7,0xfddafd69,0xf686f760,0xfd04fa1f,0xfa0efca4,0xf717f7d1,
0xf845f77a,0xf6faf873,0xf275f476,0xf458f259,0xf867f6c1,0xf9e2f96c,0xfb73fa6d,0xfcc8fc6c,
0xfb8cfc3a,0xfcb6fbb8,0xfeb3fe1f,0xfbc3fd7a,0xfd1afb93,0x0042ff15,0xff2c0029,0xfb5afd8e,
0xf356f824,0xeb03ee5b,0xe72de86f,0xf760ebab,0x1888072e,0x3d672aca,0x6fca5398,0x522d79b2,
0xd6210be2,0xcc9ac337,0xfd17e705,0xf6c2fec0,0xf906f4e9,0xfce8fcd0,0xf754fa19,0xf795f685,
0xf936f900,0xf43ef749,0xf334f277,0xf747f56f,0xf934f86e,0xfa17f99b,0xfbf1faf0,0xfc09fc66,
0xfc44fbe3,0xfe1efcf4,0xfd79feb9,0xfb59fb7a,0xff2efd4f,0xff9effd0,0xfd9eff04,0xf7e3fb4a,
0xeec1f324,0xe934ebc4,0xec1ce859,0x054cf60b,0x284e1685,0x4f7e3aaf,0x79d06b11,0x15c559bd,
0xc42edc0b,0xe329ca32,0xfe89faaf,0xf4faf723,0xfd03f906,0xfaaafd32,0xf70ef838,0xf84af752,
0xf825f8fc,0xf311f58d,0xf3ecf280,0xf7b3f60f,0xf9d3f8d0,0xfaf5fa76,0xfcd4fbfe,0xfc1dfcb1,
0xfc46fbc3,0xfebefdbf,0xfbbffdc2,0xfc8afb26,0xffe7fe95,0xff3dffdd,0xfc0efe25,0xf4d0f92e,
0xec16efb0,0xe66fe902,0xf3fbe943,0x1460037c,0x387a2611,0x671d4c8a,0x61b87a2c,0xe1d01f33,
0xc87cc605,0xf8aedfbf,0xf83aff3d,0xf76af452,0xfd99fc1c,0xf843fb73,0xf6d5f667,0xf96ef861,
0xf5f0f8ce,0xf1b1f296,0xf65ff3b0,0xf8fbf831,0xfa32f967,0xfc5dfb38,0xfceffd2e,0xfbcefc2b,
0xfd16fc1f,0xfd9cfe04,0xfb2dfbf2,0xfeb2fc7c,0x00460037,0xfd84ff2f,0xf8bffb57,0xf03df52b,
0xe8e5ebc8,0xe989e72c,0x0317f387,0x250813f2,0x4a3a370a,0x775862c2,0x2600650b,0xc7bae6df,
0xdc5dc729,0xffcaf632,0xf5a6fa22,0xfc0df7e4,0xfb9afda0,0xf677f85b,0xf85df6d8,0xf8acf948,
0xf373f651,0xf358f23b,0xf785f588,0xf957f8d2,0xfa90f9a3,0xfd1dfc20,0xfbe1fcab,0xfc42fbd8,
0xfe27fd20,0xfc53fde0,0xfc65fb79,0x0042fe89,0xff0c003e,0xfc4dfdb6,0xf5ebf9e7,0xebddf0e5,
0xe79ee896,0xf125e967,0x10caff9a,0x3461224b,0x5f9c4727,0x6b73774b,0xede9301a,0xc51ac959,
0xf4d7d91a,0xfa5d00bf,0xf678f416,0xfe24fbdb,0xf8c9fc38,0xf6cbf6a4,0xf990f84e,0xf61df900,
0xf23ff328,0xf5abf355,0xf884f7b3,0xf9a9f8fe,0xfbf8faa8,0xfd40fd07,0xfbc5fc86,0xfcebfbe3,
0xfe29fe2e,0xfb09fc77,0xfdf2fbb7,0x006cffe9,0xfe65ffb3,0xf99afc2f,0xf11cf67d,0xea32ec38,
0xe92fe8a4,0xfd50f004,0x1f350e0d,0x431830a1,0x73ac5a4b,0x3cde7107,0xce15f856,0xd4bec4f7,
0xfeadef84,0xf591fb9d,0xfa6af63a,0xfcbdfd39,0xf705f9e4,0xf77bf651,0xf950f8e3,0xf487f7ab,
0xf291f240,0xf6f5f4b3,0xf930f885,0xfa5af9a2,0xfc86fb4c,0xfc93fd21,0xfbacfbd6,0xfdd9fc5a,
0xfd34fe98,0xfbc5fb78,0x0028fddf,0xffae00c2,0xfd25feba,0xf67ff9ea,0xed59f279,0xe7bee99d,
0xee39e7ff,0x0b92fb44,0x2e171ca2,0x56c1402e,0x757771f5,0x0072463f,0xc424d178,0xec1dd138,
0xfcecfe37,0xf598f5ea,0xfd79fa0c,0xf9fcfcf8,0xf5f2f718,0xf8d4f70d,0xf7a2f948,0xf258f49d,
0xf4adf2a2,0xf889f6c7,0xf980f966,0xfb77fa28,0xfd5ffcbe,0xfc2dfcf5,0xfccffc14,0xfe1dfdc6,
0xfb79fcfd,0xfd6dfba7,0x0088ff7a,0xff01002a,0xfaa6fd19,0xf2f6f78f,0xeaa1ee12,0xe781e84e,
0xf7a6ebd6,0x19a30834,0x3d312b02,0x705b53d4,0x505779b5,0xd5240941,0xce5ec3df,0xfd59e8ee,
0xf5f1fdb8,0xf8e4f490,0xfd4cfceb,0xf79cfa94,0xf759f671,0xf961f8fe,0xf552f7d8,0xf269f301,
0xf635f3f9,0xf8c1f7e7,0xf9fff92b,0xfce8fb7a,0xfca3fd56,0xfb6efbad,0xfdbffc46,0xfd7afe85,
0xfbc1fbcc,0xff5efd5f,0xfff00085,0xfd48fe81,0xf914fbd5,0xeec2f458,0xe751ea1c,0xeb6ce70e,
0x061af662,0x290d174f,0x4fd43b10,0x79dd6b6d,0x1346587e,0xc473dac9,0xe42acadd,0xff75fba6,
0xf46bf793,0xfcaef828,0xfae6fd8c,0xf672f7ca,0xf8bdf717,0xf8f3f9ea,0xf2acf5ba,0xf3f8f22d,
0xf7e5f642,0xf98ff8de,0xfb3afa3a,0xfd10fc62,0xfca2fd1c,0xfc19fc0b,0xfe0afd15,0xfbc3fd78,
0xfce2fb36,0x007eff4c,0xfeca000a,0xfbe2fd8e,0xf488f8ea,0xeb1def4a,0xe700e88c,0xf4cdea20,
0x14ba0421,0x37a925ee,0x66374b9a,0x623b7975,0xe16c1ffa,0xc7bac515,0xfa15dfed,0xf7be003d,
0xf793f3af,0xfda9fc7a,0xf80dfb2f,0xf723f689,0xf9d1f8c7,0xf5d6f8cf,0xf236f303,0xf607f3a9,
0xf8ecf7e2,0xfa08f96f,0xfc1ffaff,0xfcfbfd04,0xfc37fc6c,0xfd03fc57,0xfda6fdf4,0xfb11fbf8,
